#include "magic_wand_model_data.h"

// We need to keep the data array aligned on some architectures.
#ifdef __has_attribute
#define HAVE_ATTRIBUTE(x) __has_attribute(x)
#else
#define HAVE_ATTRIBUTE(x) 0
#endif
#if HAVE_ATTRIBUTE(aligned) || (defined(__GNUC__) && !defined(__clang__))
#define DATA_ALIGN_ATTRIBUTE __attribute__((aligned(4)))
#else
#define DATA_ALIGN_ATTRIBUTE
#endif

const unsigned char g_magic_wand_model_data[] DATA_ALIGN_ATTRIBUTE = {
  // Paste the data of the char array in `src/model.cc` here
  
  0x1c, 0x00, 0x00, 0x00, 0x54, 0x46, 0x4c, 0x33, 0x14, 0x00, 0x20, 0x00,
  0x04, 0x00, 0x08, 0x00, 0x0c, 0x00, 0x10, 0x00, 0x14, 0x00, 0x00, 0x00,
  0x18, 0x00, 0x1c, 0x00, 0x14, 0x00, 0x00, 0x00, 0x03, 0x00, 0x00, 0x00,
  0x18, 0x00, 0x00, 0x00, 0x2c, 0x00, 0x00, 0x00, 0xd8, 0x00, 0x00, 0x00,
  0x2c, 0x00, 0x00, 0x00, 0x80, 0x00, 0x00, 0x00, 0x78, 0x00, 0x00, 0x00,
  0x05, 0x00, 0x00, 0x00, 0x28, 0x07, 0x00, 0x00, 0x44, 0x06, 0x00, 0x00,
  0xbc, 0x03, 0x00, 0x00, 0xf8, 0x02, 0x00, 0x00, 0xac, 0x01, 0x00, 0x00,
  0x01, 0x00, 0x00, 0x00, 0xd0, 0x00, 0x00, 0x00, 0x14, 0x00, 0x00, 0x00,
  0xdc, 0x32, 0x00, 0x00, 0xd8, 0x32, 0x00, 0x00, 0xd0, 0x31, 0x00, 0x00,
  0x1c, 0x31, 0x00, 0x00, 0x74, 0x30, 0x00, 0x00, 0xfc, 0x2f, 0x00, 0x00,
  0x90, 0x2f, 0x00, 0x00, 0x40, 0x13, 0x00, 0x00, 0xec, 0x11, 0x00, 0x00,
  0x10, 0x10, 0x00, 0x00, 0xb4, 0x07, 0x00, 0x00, 0xb0, 0x32, 0x00, 0x00,
  0xac, 0x32, 0x00, 0x00, 0xa8, 0x32, 0x00, 0x00, 0xa4, 0x32, 0x00, 0x00,
  0xa0, 0x32, 0x00, 0x00, 0x9c, 0x32, 0x00, 0x00, 0x98, 0x32, 0x00, 0x00,
  0x94, 0x32, 0x00, 0x00, 0x3c, 0x00, 0x00, 0x00, 0x00, 0x00, 0x00, 0x00,
  0x01, 0x00, 0x00, 0x00, 0x0c, 0x00, 0x00, 0x00, 0x08, 0x00, 0x0c, 0x00,
  0x04, 0x00, 0x08, 0x00, 0x08, 0x00, 0x00, 0x00, 0x08, 0x00, 0x00, 0x00,
  0x13, 0x00, 0x00, 0x00, 0x13, 0x00, 0x00, 0x00, 0x6d, 0x69, 0x6e, 0x5f,
  0x72, 0x75, 0x6e, 0x74, 0x69, 0x6d, 0x65, 0x5f, 0x76, 0x65, 0x72, 0x73,
  0x69, 0x6f, 0x6e, 0x00, 0xb6, 0xce, 0xff, 0xff, 0x04, 0x00, 0x00, 0x00,
  0x10, 0x00, 0x00, 0x00, 0x31, 0x2e, 0x35, 0x2e, 0x30, 0x00, 0x00, 0x00,
  0x00, 0x00, 0x00, 0x00, 0x00, 0x00, 0x00, 0x00, 0x0f, 0x00, 0x00, 0x00,
  0x4d, 0x4c, 0x49, 0x52, 0x20, 0x43, 0x6f, 0x6e, 0x76, 0x65, 0x72, 0x74,
  0x65, 0x64, 0x2e, 0x00, 0x00, 0x00, 0x0e, 0x00, 0x18, 0x00, 0x04, 0x00,
  0x08, 0x00, 0x0c, 0x00, 0x10, 0x00, 0x14, 0x00, 0x0e, 0x00, 0x00, 0x00,
  0x14, 0x00, 0x00, 0x00, 0x5c, 0x00, 0x00, 0x00, 0x60, 0x00, 0x00, 0x00,
  0x64, 0x00, 0x00, 0x00, 0x84, 0x00, 0x00, 0x00, 0x12, 0x00, 0x00, 0x00,
  0x9c, 0x31, 0x00, 0x00, 0x2c, 0x31, 0x00, 0x00, 0x88, 0x30, 0x00, 0x00,
  0xe0, 0x2f, 0x00, 0x00, 0x38, 0x2f, 0x00, 0x00, 0xd4, 0x2e, 0x00, 0x00,
  0x6c, 0x2e, 0x00, 0x00, 0x18, 0x12, 0x00, 0x00, 0xbc, 0x10, 0x00, 0x00,
  0xe0, 0x0e, 0x00, 0x00, 0x0c, 0x06, 0x00, 0x00, 0x28, 0x05, 0x00, 0x00,
  0xe8, 0x03, 0x00, 0x00, 0x3c, 0x03, 0x00, 0x00, 0x98, 0x02, 0x00, 0x00,
  0xd4, 0x01, 0x00, 0x00, 0x10, 0x01, 0x00, 0x00, 0x84, 0x00, 0x00, 0x00,
  0x01, 0x00, 0x00, 0x00, 0x00, 0x00, 0x00, 0x00, 0x01, 0x00, 0x00, 0x00,
  0x11, 0x00, 0x00, 0x00, 0x08, 0x00, 0x00, 0x00, 0x74, 0x05, 0x00, 0x00,
  0x94, 0x04, 0x00, 0x00, 0x78, 0x03, 0x00, 0x00, 0xbc, 0x02, 0x00, 0x00,
  0x30, 0x02, 0x00, 0x00, 0x50, 0x01, 0x00, 0x00, 0xa8, 0x00, 0x00, 0x00,
  0x10, 0x00, 0x00, 0x00, 0x04, 0x00, 0x00, 0x00, 0x6d, 0x61, 0x69, 0x6e,
  0x00, 0x00, 0x00, 0x00, 0x7a, 0xff, 0xff, 0xff, 0x00, 0x00, 0x00, 0x09,
  0x04, 0x00, 0x00, 0x00, 0x1c, 0x00, 0x00, 0x00, 0x10, 0x00, 0x00, 0x00,
  0x04, 0x00, 0x00, 0x00, 0xb2, 0xcf, 0xff, 0xff, 0x00, 0x00, 0x80, 0x3f,
  0x01, 0x00, 0x00, 0x00, 0x11, 0x00, 0x00, 0x00, 0x01, 0x00, 0x00, 0x00,
  0x10, 0x00, 0x00, 0x00, 0xa0, 0xfa, 0xff, 0xff, 0x19, 0x00, 0x00, 0x00,
  0x00, 0x00, 0x00, 0x19, 0x01, 0x00, 0x00, 0x00, 0x40, 0xcf, 0xff, 0xff,
  0x14, 0x00, 0x00, 0x00, 0x12, 0x00, 0x00, 0x00, 0x18, 0x00, 0x00, 0x00,
  0x30, 0x00, 0x00, 0x00, 0x20, 0x00, 0x00, 0x00, 0x02, 0x00, 0x00, 0x00,
  0x01, 0x00, 0x00, 0x00, 0x04, 0x00, 0x00, 0x00, 0x08, 0x00, 0x00, 0x00,
  0x49, 0x64, 0x65, 0x6e, 0x74, 0x69, 0x74, 0x79, 0x00, 0x00, 0x00, 0x00,
  0x02, 0x00, 0x00, 0x00, 0xff, 0xff, 0xff, 0xff, 0x04, 0x00, 0x00, 0x00,
  0x24, 0xd0, 0xff, 0xff, 0x00, 0x00, 0x0e, 0x00, 0x18, 0x00, 0x08, 0x00,
  0x0c, 0x00, 0x10, 0x00, 0x07, 0x00, 0x14, 0x00, 0x0e, 0x00, 0x00, 0x00,
  0x00, 0x00, 0x00, 0x08, 0x03, 0x00, 0x00, 0x00, 0x18, 0x00, 0x00, 0x00,
  0x0c, 0x00, 0x00, 0x00, 0x04, 0x00, 0x00, 0x00, 0x40, 0xcf, 0xff, 0xff,
  0x01, 0x00, 0x00, 0x00, 0x10, 0x00, 0x00, 0x00, 0x03, 0x00, 0x00, 0x00,
  0x0f, 0x00, 0x00, 0x00, 0x07, 0x00, 0x00, 0x00, 0x04, 0x00, 0x00, 0x00,
  0xc8, 0xcf, 0xff, 0xff, 0x14, 0x00, 0x00, 0x00, 0x11, 0x00, 0x00, 0x00,
  0x18, 0x00, 0x00, 0x00, 0x5c, 0x00, 0x00, 0x00, 0x4c, 0x00, 0x00, 0x00,
  0x02, 0x00, 0x00, 0x00, 0x01, 0x00, 0x00, 0x00, 0x04, 0x00, 0x00, 0x00,
  0x34, 0x00, 0x00, 0x00, 0x73, 0x65, 0x71, 0x75, 0x65, 0x6e, 0x74, 0x69,
  0x61, 0x6c, 0x2f, 0x64, 0x65, 0x6e, 0x73, 0x65, 0x5f, 0x31, 0x2f, 0x4d,
  0x61, 0x74, 0x4d, 0x75, 0x6c, 0x3b, 0x73, 0x65, 0x71, 0x75, 0x65, 0x6e,
  0x74, 0x69, 0x61, 0x6c, 0x2f, 0x64, 0x65, 0x6e, 0x73, 0x65, 0x5f, 0x31,
  0x2f, 0x42, 0x69, 0x61, 0x73, 0x41, 0x64, 0x64, 0x00, 0x00, 0x00, 0x00,
  0x02, 0x00, 0x00, 0x00, 0xff, 0xff, 0xff, 0xff, 0x04, 0x00, 0x00, 0x00,
  0xc8, 0xcf, 0xff, 0xff, 0xda, 0xfc, 0xff, 0xff, 0x00, 0x00, 0x00, 0x08,
  0x03, 0x00, 0x00, 0x00, 0x24, 0x00, 0x00, 0x00, 0x18, 0x00, 0x00, 0x00,
  0x0c, 0x00, 0x00, 0x00, 0x00, 0x00, 0x06, 0x00, 0x08, 0x00, 0x07, 0x00,
  0x06, 0x00, 0x00, 0x00, 0x00, 0x00, 0x00, 0x01, 0x01, 0x00, 0x00, 0x00,
  0x0f, 0x00, 0x00, 0x00, 0x03, 0x00, 0x00, 0x00, 0x0e, 0x00, 0x00, 0x00,
  0x06, 0x00, 0x00, 0x00, 0x03, 0x00, 0x00, 0x00, 0xe8, 0xfb, 0xff, 0xff,
  0x09, 0x00, 0x00, 0x00, 0x00, 0x00, 0x00, 0x09, 0x01, 0x00, 0x00, 0x00,
  0x88, 0xd0, 0xff, 0xff, 0x14, 0x00, 0x00, 0x00, 0x10, 0x00, 0x00, 0x00,
  0x18, 0x00, 0x00, 0x00, 0x6c, 0x00, 0x00, 0x00, 0x5c, 0x00, 0x00, 0x00,
  0x02, 0x00, 0x00, 0x00, 0x01, 0x00, 0x00, 0x00, 0x10, 0x00, 0x00, 0x00,
  0x46, 0x00, 0x00, 0x00, 0x73, 0x65, 0x71, 0x75, 0x65, 0x6e, 0x74, 0x69,
  0x61, 0x6c, 0x2f, 0x64, 0x65, 0x6e, 0x73, 0x65, 0x2f, 0x4d, 0x61, 0x74,
  0x4d, 0x75, 0x6c, 0x3b, 0x73, 0x65, 0x71, 0x75, 0x65, 0x6e, 0x74, 0x69,
  0x61, 0x6c, 0x2f, 0x64, 0x65, 0x6e, 0x73, 0x65, 0x2f, 0x52, 0x65, 0x6c,
  0x75, 0x3b, 0x73, 0x65, 0x71, 0x75, 0x65, 0x6e, 0x74, 0x69, 0x61, 0x6c,
  0x2f, 0x64, 0x65, 0x6e, 0x73, 0x65, 0x2f, 0x42, 0x69, 0x61, 0x73, 0x41,
  0x64, 0x64, 0x00, 0x00, 0x02, 0x00, 0x00, 0x00, 0xff, 0xff, 0xff, 0xff,
  0x10, 0x00, 0x00, 0x00, 0xa8, 0xd1, 0xff, 0xff, 0x00, 0x00, 0x0a, 0x00,
  0x10, 0x00, 0x04, 0x00, 0x08, 0x00, 0x0c, 0x00, 0x0a, 0x00, 0x00, 0x00,
  0x02, 0x00, 0x00, 0x00, 0x10, 0x00, 0x00, 0x00, 0x04, 0x00, 0x00, 0x00,
  0x01, 0x00, 0x00, 0x00, 0x0e, 0x00, 0x00, 0x00, 0x02, 0x00, 0x00, 0x00,
  0x0d, 0x00, 0x00, 0x00, 0x05, 0x00, 0x00, 0x00, 0xa8, 0xfc, 0xff, 0xff,
  0x16, 0x00, 0x00, 0x00, 0x00, 0x00, 0x00, 0x16, 0x01, 0x00, 0x00, 0x00,
  0x48, 0xd1, 0xff, 0xff, 0x14, 0x00, 0x00, 0x00, 0x0f, 0x00, 0x00, 0x00,
  0x18, 0x00, 0x00, 0x00, 0x40, 0x00, 0x00, 0x00, 0x30, 0x00, 0x00, 0x00,
  0x02, 0x00, 0x00, 0x00, 0x01, 0x00, 0x00, 0x00, 0x70, 0x00, 0x00, 0x00,
  0x1a, 0x00, 0x00, 0x00, 0x73, 0x65, 0x71, 0x75, 0x65, 0x6e, 0x74, 0x69,
  0x61, 0x6c, 0x2f, 0x66, 0x6c, 0x61, 0x74, 0x74, 0x65, 0x6e, 0x2f, 0x52,
  0x65, 0x73, 0x68, 0x61, 0x70, 0x65, 0x00, 0x00, 0x02, 0x00, 0x00, 0x00,
  0xff, 0xff, 0xff, 0xff, 0x70, 0x00, 0x00, 0x00, 0x2c, 0xd1, 0xff, 0xff,
  0x3e, 0xfe, 0xff, 0xff, 0x00, 0x00, 0x00, 0x05, 0x01, 0x00, 0x00, 0x00,
  0x38, 0x00, 0x00, 0x00, 0x2c, 0x00, 0x00, 0x00, 0x14, 0x00, 0x00, 0x00,
  0x00, 0x00, 0x0e, 0x00, 0x14, 0x00, 0x00, 0x00, 0x10, 0x00, 0x0c, 0x00,
  0x08, 0x00, 0x04, 0x00, 0x0e, 0x00, 0x00, 0x00, 0x03, 0x00, 0x00, 0x00,
  0x01, 0x00, 0x00, 0x00, 0x03, 0x00, 0x00, 0x00, 0x01, 0x00, 0x00, 0x00,
  0x01, 0x00, 0x00, 0x00, 0x0d, 0x00, 0x00, 0x00, 0x01, 0x00, 0x00, 0x00,
  0x0c, 0x00, 0x00, 0x00, 0xe8, 0xd1, 0xff, 0xff, 0x14, 0x00, 0x00, 0x00,
  0x0e, 0x00, 0x00, 0x00, 0x20, 0x00, 0x00, 0x00, 0x58, 0x00, 0x00, 0x00,
  0x40, 0x00, 0x00, 0x00, 0x04, 0x00, 0x00, 0x00, 0x01, 0x00, 0x00, 0x00,
  0x07, 0x00, 0x00, 0x00, 0x01, 0x00, 0x00, 0x00, 0x10, 0x00, 0x00, 0x00,
  0x22, 0x00, 0x00, 0x00, 0x73, 0x65, 0x71, 0x75, 0x65, 0x6e, 0x74, 0x69,
  0x61, 0x6c, 0x2f, 0x6d, 0x61, 0x78, 0x5f, 0x70, 0x6f, 0x6f, 0x6c, 0x69,
  0x6e, 0x67, 0x32, 0x64, 0x5f, 0x31, 0x2f, 0x4d, 0x61, 0x78, 0x50, 0x6f,
  0x6f, 0x6c, 0x00, 0x00, 0x04, 0x00, 0x00, 0x00, 0xff, 0xff, 0xff, 0xff,
  0x07, 0x00, 0x00, 0x00, 0x01, 0x00, 0x00, 0x00, 0x10, 0x00, 0x00, 0x00,
  0xe4, 0xd1, 0xff, 0xff, 0x1a, 0xfe, 0xff, 0xff, 0x00, 0x00, 0x00, 0x01,
  0x24, 0x00, 0x00, 0x00, 0x18, 0x00, 0x00, 0x00, 0x04, 0x00, 0x00, 0x00,
  0x0c, 0xfe, 0xff, 0xff, 0x01, 0x00, 0x00, 0x00, 0x01, 0x00, 0x00, 0x00,
  0x00, 0x00, 0x00, 0x01, 0x01, 0x00, 0x00, 0x00, 0x0c, 0x00, 0x00, 0x00,
  0x03, 0x00, 0x00, 0x00, 0x0b, 0x00, 0x00, 0x00, 0x09, 0x00, 0x00, 0x00,
  0x02, 0x00, 0x00, 0x00, 0x90, 0xd2, 0xff, 0xff, 0x14, 0x00, 0x00, 0x00,
  0x0d, 0x00, 0x00, 0x00, 0x20, 0x00, 0x00, 0x00, 0xb8, 0x00, 0x00, 0x00,
  0xa0, 0x00, 0x00, 0x00, 0x04, 0x00, 0x00, 0x00, 0x01, 0x00, 0x00, 0x00,
  0x15, 0x00, 0x00, 0x00, 0x01, 0x00, 0x00, 0x00, 0x10, 0x00, 0x00, 0x00,
  0x83, 0x00, 0x00, 0x00, 0x73, 0x65, 0x71, 0x75, 0x65, 0x6e, 0x74, 0x69,
  0x61, 0x6c, 0x2f, 0x63, 0x6f, 0x6e, 0x76, 0x32, 0x64, 0x5f, 0x31, 0x2f,
  0x52, 0x65, 0x6c, 0x75, 0x3b, 0x73, 0x65, 0x71, 0x75, 0x65, 0x6e, 0x74,
  0x69, 0x61, 0x6c, 0x2f, 0x63, 0x6f, 0x6e, 0x76, 0x32, 0x64, 0x5f, 0x31,
  0x2f, 0x42, 0x69, 0x61, 0x73, 0x41, 0x64, 0x64, 0x3b, 0x73, 0x65, 0x71,
  0x75, 0x65, 0x6e, 0x74, 0x69, 0x61, 0x6c, 0x2f, 0x63, 0x6f, 0x6e, 0x76,
  0x32, 0x64, 0x5f, 0x31, 0x2f, 0x43, 0x6f, 0x6e, 0x76, 0x32, 0x44, 0x3b,
  0x73, 0x65, 0x71, 0x75, 0x65, 0x6e, 0x74, 0x69, 0x61, 0x6c, 0x2f, 0x63,
  0x6f, 0x6e, 0x76, 0x32, 0x64, 0x5f, 0x31, 0x2f, 0x42, 0x69, 0x61, 0x73,
  0x41, 0x64, 0x64, 0x2f, 0x52, 0x65, 0x61, 0x64, 0x56, 0x61, 0x72, 0x69,
  0x61, 0x62, 0x6c, 0x65, 0x4f, 0x70, 0x2f, 0x72, 0x65, 0x73, 0x6f, 0x75,
  0x72, 0x63, 0x65, 0x00, 0x04, 0x00, 0x00, 0x00, 0xff, 0xff, 0xff, 0xff,
  0x15, 0x00, 0x00, 0x00, 0x01, 0x00, 0x00, 0x00, 0x10, 0x00, 0x00, 0x00,
  0xfc, 0xd3, 0xff, 0xff, 0x00, 0x00, 0x0e, 0x00, 0x1a, 0x00, 0x08, 0x00,
  0x0c, 0x00, 0x10, 0x00, 0x07, 0x00, 0x14, 0x00, 0x0e, 0x00, 0x00, 0x00,
  0x00, 0x00, 0x00, 0x05, 0x01, 0x00, 0x00, 0x00, 0x3c, 0x00, 0x00, 0x00,
  0x30, 0x00, 0x00, 0x00, 0x14, 0x00, 0x00, 0x00, 0x00, 0x00, 0x0e, 0x00,
  0x18, 0x00, 0x17, 0x00, 0x10, 0x00, 0x0c, 0x00, 0x08, 0x00, 0x04, 0x00,
  0x0e, 0x00, 0x00, 0x00, 0x03, 0x00, 0x00, 0x00, 0x03, 0x00, 0x00, 0x00,
  0x03, 0x00, 0x00, 0x00, 0x03, 0x00, 0x00, 0x00, 0x00, 0x00, 0x00, 0x01,
  0x01, 0x00, 0x00, 0x00, 0x0b, 0x00, 0x00, 0x00, 0x01, 0x00, 0x00, 0x00,
  0x0a, 0x00, 0x00, 0x00, 0x2c, 0xff, 0xff, 0xff, 0x11, 0x00, 0x00, 0x00,
  0x00, 0x00, 0x00, 0x11, 0x01, 0x00, 0x00, 0x00, 0xcc, 0xd3, 0xff, 0xff,
  0x14, 0x00, 0x00, 0x00, 0x0c, 0x00, 0x00, 0x00, 0x20, 0x00, 0x00, 0x00,
  0x58, 0x00, 0x00, 0x00, 0x40, 0x00, 0x00, 0x00, 0x04, 0x00, 0x00, 0x00,
  0x01, 0x00, 0x00, 0x00, 0x15, 0x00, 0x00, 0x00, 0x01, 0x00, 0x00, 0x00,
  0x08, 0x00, 0x00, 0x00, 0x20, 0x00, 0x00, 0x00, 0x73, 0x65, 0x71, 0x75,
  0x65, 0x6e, 0x74, 0x69, 0x61, 0x6c, 0x2f, 0x6d, 0x61, 0x78, 0x5f, 0x70,
  0x6f, 0x6f, 0x6c, 0x69, 0x6e, 0x67, 0x32, 0x64, 0x2f, 0x4d, 0x61, 0x78,
  0x50, 0x6f, 0x6f, 0x6c, 0x00, 0x00, 0x00, 0x00, 0x04, 0x00, 0x00, 0x00,
  0xff, 0xff, 0xff, 0xff, 0x15, 0x00, 0x00, 0x00, 0x01, 0x00, 0x00, 0x00,
  0x08, 0x00, 0x00, 0x00, 0xd8, 0xd4, 0xff, 0xff, 0x00, 0x00, 0x0e, 0x00,
  0x14, 0x00, 0x00, 0x00, 0x08, 0x00, 0x0c, 0x00, 0x07, 0x00, 0x10, 0x00,
  0x0e, 0x00, 0x00, 0x00, 0x00, 0x00, 0x00, 0x01, 0x30, 0x00, 0x00, 0x00,
  0x24, 0x00, 0x00, 0x00, 0x10, 0x00, 0x00, 0x00, 0x0c, 0x00, 0x10, 0x00,
  0x00, 0x00, 0x04, 0x00, 0x08, 0x00, 0x0f, 0x00, 0x0c, 0x00, 0x00, 0x00,
  0x01, 0x00, 0x00, 0x00, 0x01, 0x00, 0x00, 0x00, 0x00, 0x00, 0x00, 0x01,
  0x01, 0x00, 0x00, 0x00, 0x0a, 0x00, 0x00, 0x00, 0x03, 0x00, 0x00, 0x00,
  0x00, 0x00, 0x00, 0x00, 0x08, 0x00, 0x00, 0x00, 0x01, 0x00, 0x00, 0x00,
  0x0c, 0x00, 0x10, 0x00, 0x0b, 0x00, 0x00, 0x00, 0x0c, 0x00, 0x04, 0x00,
  0x0c, 0x00, 0x00, 0x00, 0x03, 0x00, 0x00, 0x00, 0x00, 0x00, 0x00, 0x03,
  0x01, 0x00, 0x00, 0x00, 0xac, 0xd4, 0xff, 0xff, 0x14, 0x00, 0x00, 0x00,
  0x0b, 0x00, 0x00, 0x00, 0x20, 0x00, 0x00, 0x00, 0xb0, 0x00, 0x00, 0x00,
  0x98, 0x00, 0x00, 0x00, 0x04, 0x00, 0x00, 0x00, 0x01, 0x00, 0x00, 0x00,
  0x40, 0x00, 0x00, 0x00, 0x03, 0x00, 0x00, 0x00, 0x08, 0x00, 0x00, 0x00,
  0x7b, 0x00, 0x00, 0x00, 0x73, 0x65, 0x71, 0x75, 0x65, 0x6e, 0x74, 0x69,
  0x61, 0x6c, 0x2f, 0x63, 0x6f, 0x6e, 0x76, 0x32, 0x64, 0x2f, 0x52, 0x65,
  0x6c, 0x75, 0x3b, 0x73, 0x65, 0x71, 0x75, 0x65, 0x6e, 0x74, 0x69, 0x61,
  0x6c, 0x2f, 0x63, 0x6f, 0x6e, 0x76, 0x32, 0x64, 0x2f, 0x42, 0x69, 0x61,
  0x73, 0x41, 0x64, 0x64, 0x3b, 0x73, 0x65, 0x71, 0x75, 0x65, 0x6e, 0x74,
  0x69, 0x61, 0x6c, 0x2f, 0x63, 0x6f, 0x6e, 0x76, 0x32, 0x64, 0x2f, 0x43,
  0x6f, 0x6e, 0x76, 0x32, 0x44, 0x3b, 0x73, 0x65, 0x71, 0x75, 0x65, 0x6e,
  0x74, 0x69, 0x61, 0x6c, 0x2f, 0x63, 0x6f, 0x6e, 0x76, 0x32, 0x64, 0x2f,
  0x42, 0x69, 0x61, 0x73, 0x41, 0x64, 0x64, 0x2f, 0x52, 0x65, 0x61, 0x64,
  0x56, 0x61, 0x72, 0x69, 0x61, 0x62, 0x6c, 0x65, 0x4f, 0x70, 0x2f, 0x72,
  0x65, 0x73, 0x6f, 0x75, 0x72, 0x63, 0x65, 0x00, 0x04, 0x00, 0x00, 0x00,
  0xff, 0xff, 0xff, 0xff, 0x40, 0x00, 0x00, 0x00, 0x03, 0x00, 0x00, 0x00,
  0x08, 0x00, 0x00, 0x00, 0x00, 0xd5, 0xff, 0xff, 0x0a, 0xd6, 0xff, 0xff,
  0x04, 0x00, 0x00, 0x00, 0x00, 0x08, 0x00, 0x00, 0x0e, 0xfe, 0x2c, 0xbe,
  0x68, 0x34, 0x95, 0xbe, 0x33, 0x30, 0x85, 0xbe, 0xe9, 0x6a, 0x3d, 0xbe,
  0x43, 0x78, 0x71, 0xbc, 0x50, 0x88, 0x80, 0xbc, 0xd3, 0x34, 0xab, 0xbd,
  0xd0, 0xd2, 0xa0, 0xbe, 0x55, 0x56, 0xa0, 0xbd, 0x1d, 0x03, 0x87, 0xbe,
  0x37, 0x01, 0x34, 0xbe, 0x36, 0x13, 0xe7, 0xbd, 0x50, 0x1b, 0x22, 0xbe,
  0x6f, 0x04, 0xff, 0x3d, 0xe3, 0xa0, 0xb9, 0xbc, 0x16, 0x2f, 0xfe, 0xbc,
  0xee, 0x71, 0xef, 0x3d, 0x35, 0x66, 0x66, 0xbd, 0xc8, 0xd3, 0x7e, 0xbe,
  0x4c, 0x18, 0x42, 0x3d, 0x1b, 0xf1, 0x4d, 0xbe, 0x46, 0x07, 0xad, 0x3e,
  0xd8, 0xb4, 0x87, 0x3d, 0xa3, 0x68, 0x52, 0x3e, 0xfc, 0x2c, 0xcc, 0xbd,
  0xaa, 0x99, 0x36, 0xbd, 0x6c, 0x69, 0x8a, 0xbe, 0xa4, 0x72, 0xdd, 0x3e,
  0x32, 0xd8, 0x55, 0xbe, 0xf2, 0x37, 0xaa, 0x3e, 0xb9, 0xbf, 0x09, 0x3d,
  0x87, 0x9b, 0xa4, 0x3e, 0x78, 0x4c, 0x7e, 0xbe, 0x04, 0x43, 0x14, 0xbe,
  0xfe, 0xea, 0xae, 0xbd, 0xc6, 0xb5, 0x51, 0xbe, 0x67, 0xa1, 0xe4, 0xbe,
  0x25, 0x14, 0x67, 0xbd, 0xda, 0xd6, 0xc5, 0xbd, 0x55, 0x2d, 0xb8, 0xbd,
  0x71, 0x86, 0x80, 0x3e, 0xb6, 0x21, 0x14, 0xbe, 0xc0, 0x07, 0xa6, 0xbd,
  0x17, 0xfb, 0x15, 0x3e, 0x39, 0x5f, 0xa1, 0xbe, 0xf9, 0x54, 0xba, 0x3d,
  0x0a, 0x43, 0xfc, 0x3d, 0xdc, 0x91, 0x87, 0x3d, 0x19, 0x7a, 0xe8, 0x3d,
  0xb6, 0x78, 0xda, 0xbd, 0x11, 0x75, 0x0e, 0xbe, 0x80, 0x2b, 0xf1, 0x3d,
  0xe5, 0xc2, 0x8c, 0xbe, 0x2c, 0x00, 0x2f, 0x3d, 0xe1, 0xe9, 0x7f, 0x3e,
  0x5d, 0x4c, 0x85, 0x3e, 0xde, 0x0b, 0x9a, 0x3d, 0xb3, 0xf3, 0xa9, 0xbd,
  0x46, 0x00, 0x0c, 0xbe, 0xf5, 0xf3, 0xc9, 0xbc, 0x34, 0x39, 0xe3, 0xbd,
  0x94, 0x87, 0xbe, 0xbd, 0xc1, 0x05, 0xdb, 0xbc, 0x76, 0x77, 0xab, 0x3e,
  0x92, 0x45, 0x5b, 0xbe, 0xc1, 0xba, 0xc4, 0x3d, 0x19, 0x86, 0x8d, 0xbd,
  0x13, 0x07, 0xa2, 0xbe, 0x2d, 0xbd, 0xa4, 0xbd, 0x52, 0x3c, 0xee, 0x3d,
  0x17, 0x0c, 0x94, 0xbe, 0x05, 0x68, 0x0e, 0xbc, 0x27, 0x95, 0x3c, 0xbe,
  0xc6, 0x69, 0xf5, 0x3b, 0xbd, 0x87, 0x8c, 0xbc, 0xf2, 0x2c, 0x4f, 0xbe,
  0x7f, 0xd3, 0x67, 0xbd, 0xef, 0xc8, 0xcd, 0x3c, 0xe9, 0x77, 0x83, 0xbe,
  0x1c, 0x46, 0xff, 0xbc, 0xb0, 0x57, 0x15, 0xbe, 0xf8, 0x3a, 0x5f, 0xbd,
  0x84, 0xdb, 0x58, 0x3e, 0x83, 0x75, 0xcd, 0xbc, 0xad, 0x12, 0xac, 0xbd,
  0x6e, 0xf9, 0x1a, 0xbd, 0x56, 0x93, 0x95, 0xbb, 0x22, 0x75, 0x85, 0xbd,
  0x72, 0xcd, 0x2a, 0x3f, 0xb8, 0x0e, 0x51, 0xbe, 0x41, 0x50, 0xb6, 0x3b,
  0x8a, 0x87, 0x54, 0x3c, 0x2e, 0xea, 0x05, 0xbe, 0xcb, 0xdd, 0x05, 0xbe,
  0xbf, 0x35, 0x4c, 0x3e, 0x52, 0xa7, 0xfd, 0x3d, 0xce, 0xb0, 0xa0, 0xbe,
  0xad, 0x65, 0x22, 0xbe, 0x14, 0x65, 0xd4, 0x3e, 0x15, 0xc3, 0x58, 0xbe,
  0x7e, 0xfa, 0x7b, 0x3d, 0x15, 0xee, 0xe6, 0xbd, 0xe9, 0x20, 0x41, 0xbe,
  0x2e, 0xda, 0xfb, 0x3d, 0x18, 0x3c, 0x38, 0xbe, 0xc7, 0x89, 0xd7, 0xbd,
  0x84, 0x2f, 0xfd, 0x3d, 0x9a, 0x57, 0x1c, 0x3e, 0xfa, 0x67, 0xba, 0xbd,
  0xde, 0x9e, 0x83, 0x3e, 0xbf, 0x0f, 0x99, 0x3e, 0x82, 0x7a, 0x3c, 0x3e,
  0x1f, 0xac, 0x59, 0xbe, 0x9c, 0x18, 0x15, 0xbe, 0xf8, 0x4c, 0x6c, 0xbc,
  0x7d, 0x1b, 0xa9, 0x3a, 0x28, 0xe3, 0x2e, 0xbe, 0x22, 0xb4, 0xa4, 0xbc,
  0x91, 0xac, 0x0b, 0x3e, 0x0b, 0x27, 0x83, 0x3e, 0xf2, 0xa9, 0xd4, 0xbd,
  0x88, 0xb1, 0x33, 0xbe, 0xad, 0x0b, 0x58, 0xbc, 0x01, 0x3e, 0xa2, 0xbd,
  0x77, 0xde, 0x13, 0xbe, 0x75, 0x3e, 0x7f, 0xbd, 0x75, 0x54, 0x11, 0xbe,
  0x8b, 0xc3, 0xd7, 0x3e, 0x00, 0x40, 0x0d, 0x3d, 0xbc, 0xc4, 0xb4, 0x3d,
  0x96, 0x63, 0xba, 0xbd, 0x2f, 0xc2, 0x13, 0x3f, 0x96, 0xa3, 0x8d, 0xbd,
  0xdb, 0xe5, 0x91, 0x3d, 0xcd, 0x9c, 0x46, 0x3e, 0xb9, 0x9f, 0x97, 0xbd,
  0x2d, 0xd2, 0x6f, 0xbb, 0x9c, 0x26, 0xc8, 0xbc, 0x4a, 0x99, 0x0e, 0xbe,
  0x56, 0xcb, 0x49, 0x3d, 0x05, 0x27, 0x86, 0xbd, 0x8f, 0xaa, 0xe3, 0xbb,
  0xc5, 0xa3, 0xd4, 0x3d, 0xea, 0xfd, 0x9d, 0x3d, 0x4e, 0x78, 0x8a, 0xbd,
  0x16, 0xa6, 0x4a, 0xbd, 0xe9, 0x03, 0x18, 0xbd, 0xc5, 0x93, 0xce, 0xbd,
  0xbc, 0x5e, 0x3f, 0xbe, 0x70, 0x04, 0xd3, 0xbb, 0xe4, 0x72, 0xe1, 0xbd,
  0x1b, 0x17, 0x1e, 0x3d, 0xe1, 0x5a, 0x25, 0x3d, 0xfc, 0x70, 0x62, 0xbd,
  0xa3, 0x63, 0x21, 0xbd, 0x3f, 0x23, 0x47, 0xbe, 0x3d, 0x8c, 0x8d, 0xbd,
  0xfd, 0xc1, 0x25, 0xbe, 0xc8, 0x5f, 0x27, 0xbe, 0x45, 0xbf, 0x2b, 0x3d,
  0x5b, 0x18, 0xb0, 0x3c, 0x18, 0x3b, 0x32, 0xbe, 0x3a, 0x8d, 0x9b, 0xbf,
  0x14, 0xbc, 0x4a, 0xbd, 0x03, 0x57, 0x25, 0x3e, 0x9b, 0x74, 0x5d, 0xbf,
  0x0e, 0x98, 0x97, 0x3e, 0x70, 0x65, 0x8c, 0x3e, 0xe4, 0x55, 0xc6, 0xbd,
  0x77, 0x9d, 0x2b, 0x3d, 0x02, 0x79, 0x14, 0xbf, 0x25, 0x83, 0x75, 0xbe,
  0x3e, 0x3b, 0x37, 0xbd, 0xe0, 0x16, 0x57, 0xbe, 0xe5, 0x43, 0x03, 0xbe,
  0x4d, 0xde, 0xfc, 0xbb, 0x0d, 0xbf, 0xf8, 0xbd, 0x6e, 0x48, 0x35, 0x3e,
  0x8b, 0x4d, 0x4c, 0xbe, 0x43, 0x5e, 0xde, 0xbe, 0x99, 0x32, 0xb2, 0x3c,
  0xa1, 0x04, 0x8e, 0x3d, 0xc1, 0x9f, 0x1b, 0xbe, 0x72, 0xf1, 0x3a, 0x3e,
  0xda, 0xb4, 0x74, 0xbe, 0xcb, 0x0a, 0xbe, 0xbc, 0x92, 0xb8, 0xfe, 0xbd,
  0x17, 0xcc, 0xd3, 0xbe, 0xa1, 0x95, 0x96, 0xbd, 0xbb, 0xd8, 0x3e, 0x3f,
  0x7f, 0x72, 0xcf, 0xbe, 0x7f, 0x53, 0xe1, 0x3d, 0xb1, 0xaf, 0x8b, 0xbd,
  0x68, 0x21, 0x9f, 0x3e, 0x63, 0x24, 0x85, 0xbe, 0x89, 0x26, 0x8e, 0xbd,
  0xae, 0xce, 0xa0, 0x3c, 0x45, 0xbe, 0x17, 0xbf, 0x3f, 0xe8, 0x23, 0xbe,
  0xe7, 0x90, 0x85, 0x3d, 0x0d, 0x2e, 0x1e, 0x3e, 0x50, 0xca, 0x2d, 0x3d,
  0x80, 0x0b, 0x23, 0xbe, 0xba, 0x88, 0x61, 0x3d, 0x5c, 0x83, 0x1e, 0x3d,
  0xf8, 0x39, 0x04, 0xbf, 0x63, 0xda, 0x50, 0x3d, 0x39, 0x29, 0x1b, 0x3e,
  0x56, 0xb8, 0x63, 0xbd, 0xbd, 0xcd, 0x44, 0xbe, 0xb1, 0x7d, 0x63, 0x3d,
  0x94, 0x4d, 0xa7, 0x3d, 0x1d, 0x2c, 0x86, 0xbd, 0x58, 0x85, 0x0c, 0xbf,
  0xd3, 0xea, 0x77, 0xba, 0x29, 0x66, 0x91, 0x3e, 0xbd, 0x67, 0xc0, 0xbd,
  0x5e, 0xfd, 0x80, 0xbe, 0x8b, 0xc0, 0xa4, 0x3e, 0xc3, 0x61, 0x99, 0xbc,
  0x32, 0x0f, 0x08, 0xbe, 0x22, 0x73, 0xbc, 0xbe, 0x6b, 0x5e, 0x60, 0x3e,
  0xaf, 0xfa, 0x89, 0xbd, 0x62, 0x37, 0x9c, 0xbd, 0x9b, 0xc1, 0xb6, 0xbd,
  0xac, 0x1e, 0x12, 0x3e, 0x31, 0x2e, 0xd0, 0xbb, 0x6a, 0x59, 0x07, 0xbf,
  0x62, 0x0b, 0xb2, 0xbc, 0x66, 0x68, 0xbb, 0x3c, 0x0d, 0x8d, 0xa6, 0xbe,
  0x06, 0x69, 0x49, 0xbd, 0x10, 0xb5, 0x08, 0xbe, 0xed, 0xda, 0x19, 0x3e,
  0xd2, 0x59, 0xfd, 0x3c, 0x41, 0x00, 0xc9, 0xbe, 0xe9, 0x05, 0xce, 0xbd,
  0xa8, 0x36, 0xfc, 0x3d, 0x1f, 0x8a, 0x12, 0xbe, 0x32, 0x0c, 0xdc, 0x3e,
  0xdf, 0x45, 0xa7, 0xbe, 0x03, 0x59, 0xb8, 0xbc, 0x1b, 0xe1, 0x2b, 0xbd,
  0x18, 0xb7, 0xeb, 0xbd, 0x65, 0x83, 0x0a, 0xbe, 0x59, 0x91, 0x62, 0x3c,
  0x4a, 0x07, 0x52, 0x3e, 0x37, 0x3b, 0xcf, 0xbd, 0x0a, 0xde, 0xb7, 0xbe,
  0xe8, 0xc0, 0xc8, 0xbe, 0xd6, 0x8b, 0x4e, 0x3c, 0xf2, 0xab, 0x09, 0x3e,
  0x5e, 0x52, 0x47, 0xbe, 0x98, 0x15, 0xc3, 0xbd, 0xe4, 0xa7, 0x7e, 0x3e,
  0xde, 0x74, 0x1b, 0x3d, 0xea, 0x86, 0x97, 0xbe, 0xc1, 0xd4, 0x16, 0xbe,
  0x32, 0xe5, 0x46, 0x3d, 0xef, 0x68, 0xf1, 0xbe, 0x21, 0x61, 0x76, 0xbd,
  0xb4, 0x34, 0xd2, 0x3d, 0x8c, 0x75, 0x34, 0xbf, 0xf0, 0x15, 0x89, 0xbe,
  0x5b, 0x56, 0xa6, 0xbe, 0x2b, 0xed, 0xee, 0xbd, 0x07, 0x8d, 0x14, 0xbe,
  0xe3, 0xb2, 0xd0, 0xbe, 0x30, 0x80, 0x2d, 0xbe, 0x1d, 0x8e, 0xeb, 0xbd,
  0x04, 0xce, 0xf5, 0xbd, 0x83, 0x37, 0x65, 0xbd, 0x0a, 0xdc, 0x8f, 0xbd,
  0x29, 0x2b, 0x47, 0xbd, 0xe4, 0xb9, 0x67, 0x3d, 0x0f, 0x34, 0x31, 0xbe,
  0x38, 0x0f, 0xcc, 0xbd, 0x16, 0x29, 0x89, 0xbd, 0x99, 0xc5, 0x4b, 0x3e,
  0x5b, 0xeb, 0x27, 0x3d, 0x04, 0xb9, 0xdc, 0x3e, 0xe2, 0x2b, 0x11, 0x3e,
  0xc4, 0x19, 0xae, 0x3d, 0x03, 0x72, 0x97, 0x3e, 0xd6, 0x73, 0xb7, 0x3e,
  0xeb, 0x6f, 0xbe, 0xbd, 0xee, 0xb3, 0x67, 0x3e, 0xca, 0x6c, 0xd2, 0x3d,
  0x2c, 0xc0, 0x42, 0xbe, 0xda, 0x60, 0xab, 0xbe, 0xb2, 0x39, 0xce, 0x3d,
  0xe4, 0x43, 0xd4, 0x3d, 0xec, 0xac, 0x06, 0xbf, 0xb5, 0x51, 0x15, 0x3e,
  0xa5, 0xe0, 0x48, 0x3e, 0xb6, 0xe3, 0x03, 0xbb, 0xc4, 0xda, 0x8c, 0xbd,
  0xe8, 0xb5, 0x9a, 0xbf, 0xd4, 0x4b, 0x36, 0x3e, 0x75, 0x5d, 0xac, 0x3d,
  0x0a, 0xf7, 0x29, 0xbf, 0x29, 0x7f, 0xa6, 0x3d, 0xe3, 0xf5, 0x55, 0x3e,
  0xb7, 0x67, 0xb2, 0xbd, 0x48, 0xf6, 0xb4, 0x3d, 0x65, 0x9a, 0xf8, 0xbe,
  0xa8, 0x26, 0x51, 0xbd, 0xb8, 0xdb, 0x27, 0xbd, 0x76, 0x26, 0x76, 0xbe,
  0xaf, 0x44, 0x67, 0xbd, 0xbb, 0x02, 0xa9, 0x3e, 0x92, 0xff, 0x0b, 0xbe,
  0x7d, 0x40, 0x41, 0x3b, 0x84, 0x89, 0x84, 0x3d, 0x23, 0xc9, 0x73, 0xbe,
  0xaf, 0x08, 0xdb, 0xbd, 0x3f, 0xf4, 0x9e, 0x3e, 0x85, 0x1e, 0x2a, 0xbe,
  0xbc, 0x2b, 0xfe, 0x3d, 0x6d, 0x50, 0x8f, 0xbe, 0xf4, 0x68, 0x1c, 0xbe,
  0xcc, 0x3a, 0xd9, 0x3c, 0x54, 0xd3, 0x94, 0xbd, 0x6b, 0xd3, 0x37, 0xbe,
  0xd3, 0xec, 0x36, 0xbd, 0xe5, 0x2b, 0x88, 0xbe, 0xd5, 0x07, 0x0a, 0xbe,
  0x8f, 0xd8, 0x03, 0xbe, 0x1c, 0xf3, 0x39, 0x3e, 0xf4, 0x6b, 0x81, 0x3e,
  0x3f, 0x6e, 0x8a, 0xbd, 0x63, 0x4c, 0x1d, 0x3e, 0xd5, 0x33, 0x4c, 0xbd,
  0x39, 0xf1, 0xcd, 0xbe, 0x41, 0x1e, 0xb7, 0x3e, 0x4e, 0x26, 0x9a, 0xbc,
  0x19, 0x19, 0x21, 0x3e, 0xb2, 0xba, 0x1d, 0xba, 0x0d, 0xcf, 0xaa, 0xbd,
  0xf1, 0xdc, 0x50, 0xbb, 0x92, 0xa4, 0x9a, 0xbd, 0x4b, 0x86, 0x7f, 0xbe,
  0x55, 0x3b, 0x0d, 0xbd, 0x39, 0xf4, 0xaf, 0xbb, 0x46, 0x03, 0x37, 0xbd,
  0x9d, 0x5f, 0x20, 0xbe, 0xe5, 0xae, 0xc9, 0x3c, 0xe4, 0xa7, 0xbf, 0x3d,
  0x96, 0x6c, 0x03, 0xbe, 0x26, 0xb6, 0xcc, 0x3c, 0x99, 0xa2, 0xf8, 0x3d,
  0xe3, 0xf5, 0xb9, 0xbd, 0xf3, 0xd6, 0x03, 0xbe, 0xba, 0x3b, 0xa0, 0xbe,
  0x9b, 0xc7, 0xb3, 0x3c, 0xeb, 0x43, 0xcb, 0xbd, 0xfd, 0x1f, 0xea, 0xbe,
  0xc2, 0xa9, 0x40, 0x3c, 0x1b, 0x29, 0x87, 0xbd, 0x77, 0xbb, 0x94, 0xbd,
  0x24, 0x69, 0x65, 0xbd, 0x18, 0xf1, 0xae, 0xbd, 0x3f, 0x9e, 0x0b, 0xbd,
  0xbb, 0xa9, 0xeb, 0x3e, 0x39, 0x35, 0xe9, 0xbd, 0xd6, 0xeb, 0x3d, 0x3e,
  0x58, 0xc4, 0x06, 0x3c, 0x1c, 0x52, 0xb4, 0xbc, 0x13, 0x3c, 0xe0, 0x3c,
  0xc4, 0x27, 0x83, 0xbd, 0x8f, 0x28, 0x0d, 0xbd, 0xc1, 0xc7, 0x19, 0xbd,
  0xd7, 0xc5, 0xf2, 0xbc, 0xb7, 0xaf, 0x12, 0x3d, 0x3d, 0x8b, 0x41, 0xbe,
  0x38, 0x21, 0x55, 0xbd, 0xb9, 0xf2, 0x97, 0x3d, 0xad, 0x63, 0x6b, 0x3d,
  0xd3, 0xe2, 0x68, 0xbc, 0xc0, 0x91, 0x6c, 0xbb, 0x21, 0x05, 0x5f, 0xbd,
  0x0e, 0x46, 0x6a, 0x3c, 0x98, 0x81, 0x27, 0x3e, 0xdb, 0x54, 0x1e, 0xbe,
  0xd8, 0x29, 0x26, 0xbe, 0x2e, 0x93, 0x78, 0x3d, 0x87, 0x3b, 0x0d, 0xbf,
  0x4b, 0x58, 0x1a, 0xbd, 0x17, 0xbc, 0xed, 0xbe, 0x20, 0x68, 0xed, 0xbe,
  0x9b, 0xe1, 0xdf, 0x3d, 0xc4, 0xdc, 0x46, 0x3d, 0xf3, 0xa6, 0xa2, 0xbd,
  0xf6, 0x38, 0xc0, 0x3c, 0xae, 0xdb, 0xc5, 0xbe, 0x01, 0xac, 0xfd, 0x3e,
  0x3e, 0x32, 0x48, 0xbe, 0xb4, 0x6e, 0x27, 0xbe, 0x37, 0x7d, 0x9d, 0x3d,
  0x02, 0x9d, 0xc5, 0x3c, 0x6f, 0x05, 0xa4, 0xbd, 0x4a, 0xd6, 0xad, 0x3d,
  0xeb, 0xc6, 0x83, 0xbe, 0x6c, 0x01, 0x04, 0xbc, 0x7d, 0x60, 0xbc, 0x3d,
  0x21, 0xd3, 0x9e, 0xbd, 0x74, 0x9c, 0x29, 0xbe, 0x34, 0x2a, 0xef, 0x3c,
  0x6b, 0x3c, 0x10, 0x3c, 0xdd, 0xd8, 0x8d, 0xbd, 0x2d, 0x66, 0x76, 0xbe,
  0xf5, 0x6e, 0x11, 0xbc, 0xde, 0x7c, 0x10, 0x3d, 0x9f, 0x66, 0xa1, 0x3c,
  0xa1, 0x21, 0x9d, 0xbe, 0xf9, 0xe2, 0x3c, 0xbe, 0x3c, 0x37, 0xf6, 0xbe,
  0x76, 0xce, 0x20, 0xbd, 0xb5, 0x80, 0x8e, 0xbe, 0x19, 0xa9, 0x74, 0xbe,
  0xa7, 0xc6, 0xc8, 0xbe, 0xed, 0x90, 0x28, 0xbb, 0xfc, 0xf2, 0xc0, 0xbe,
  0x0c, 0x19, 0x77, 0x3e, 0x2b, 0x7c, 0x5c, 0xbd, 0x73, 0x31, 0x4c, 0xbe,
  0x9e, 0x1e, 0x03, 0xbe, 0x92, 0xe7, 0xc5, 0xbd, 0x4c, 0x4f, 0xb0, 0xbe,
  0x51, 0xc4, 0x4a, 0x3e, 0x87, 0x66, 0x75, 0x3e, 0x70, 0x80, 0xf4, 0x3c,
  0xfa, 0x6e, 0x59, 0xbd, 0xbc, 0x5b, 0xc4, 0xbd, 0x71, 0x80, 0x28, 0xbe,
  0xab, 0x2e, 0x95, 0x3d, 0x00, 0x70, 0x78, 0xbe, 0xc9, 0x4e, 0xf9, 0x3d,
  0x9b, 0x71, 0xf6, 0xbe, 0xa7, 0x5f, 0x3b, 0x3e, 0xbd, 0x55, 0xa9, 0x3d,
  0x81, 0x58, 0x3f, 0x3e, 0x34, 0x0c, 0xc7, 0xbd, 0x30, 0x19, 0x14, 0xbc,
  0x96, 0x19, 0x1f, 0xbe, 0xb7, 0x34, 0xf6, 0x3c, 0xbc, 0x5f, 0x01, 0xbf,
  0x02, 0xd2, 0x0f, 0xbe, 0x10, 0x41, 0x2b, 0xbc, 0x96, 0xa3, 0x12, 0x3d,
  0xc1, 0x40, 0xdc, 0x3a, 0xe5, 0x7e, 0x22, 0xbe, 0x21, 0x50, 0xdd, 0x3d,
  0x61, 0xaa, 0x8c, 0x3c, 0xde, 0x84, 0x09, 0xbf, 0xbf, 0x0b, 0x04, 0xbe,
  0xbf, 0x1c, 0xb5, 0xbc, 0xc1, 0x94, 0x64, 0x3d, 0xda, 0x29, 0xee, 0x3d,
  0x07, 0x38, 0x3d, 0xbe, 0x74, 0xa0, 0xb9, 0x3d, 0x25, 0x23, 0xa3, 0x3c,
  0x59, 0x7b, 0xaf, 0xbe, 0xc4, 0xea, 0x40, 0xbe, 0xcb, 0x51, 0x5b, 0xbe,
  0xb9, 0xc6, 0x7c, 0xbe, 0x24, 0x04, 0x04, 0xbd, 0xaa, 0xd3, 0x3b, 0xbe,
  0xd8, 0x88, 0x37, 0xbe, 0xbe, 0x3e, 0x06, 0xbe, 0x22, 0xc9, 0x70, 0xbd,
  0x5d, 0x04, 0xa5, 0xbe, 0x60, 0x82, 0xc7, 0xbd, 0x2f, 0x9b, 0xc0, 0xbd,
  0xa9, 0x02, 0x66, 0xbe, 0xe9, 0xc4, 0x71, 0xbd, 0x66, 0x0f, 0xe3, 0xbd,
  0x82, 0x71, 0xa1, 0xbe, 0x6d, 0xcb, 0xd1, 0xbd, 0x34, 0xd5, 0x9f, 0xbe,
  0x7f, 0x1f, 0x21, 0x3d, 0x8c, 0xdb, 0xa1, 0xbe, 0x4c, 0x81, 0xeb, 0xbe,
  0xef, 0xac, 0x56, 0xbe, 0xfa, 0x67, 0x29, 0xbc, 0x1a, 0xb5, 0xa9, 0xbe,
  0x6a, 0xe3, 0x42, 0x3d, 0x14, 0x65, 0x20, 0xbe, 0xf9, 0x2a, 0xf9, 0x3d,
  0xdd, 0x58, 0x3a, 0x3d, 0x4d, 0xf6, 0x94, 0xbb, 0xc0, 0x21, 0x33, 0xbd,
  0xdf, 0x0b, 0x84, 0x3e, 0x08, 0x35, 0x85, 0xbe, 0x80, 0xb4, 0xd7, 0x3d,
  0xe2, 0xa7, 0x2f, 0xbd, 0xe8, 0x1d, 0xc5, 0x3d, 0x4d, 0x14, 0xb1, 0xbb,
  0x36, 0x23, 0x08, 0x3e, 0x04, 0x61, 0xf3, 0x3d, 0x60, 0xd2, 0x21, 0x3e,
  0xfa, 0xc6, 0x25, 0xbe, 0x31, 0x83, 0x40, 0x3e, 0xae, 0xa0, 0x9e, 0x3a,
  0x7c, 0x7a, 0xe2, 0x3c, 0x67, 0xc2, 0x0e, 0xbe, 0x88, 0x91, 0x9b, 0xb9,
  0xf2, 0x9b, 0x95, 0x3d, 0x47, 0x1a, 0x92, 0xbc, 0xf8, 0x83, 0xef, 0xbd,
  0x9a, 0x5d, 0xdd, 0xbd, 0xe2, 0xdd, 0xff, 0xff, 0x10, 0x00, 0x00, 0x00,
  0x0a, 0x00, 0x00, 0x00, 0x1c, 0x00, 0x00, 0x00, 0x38, 0x00, 0x00, 0x00,
  0x04, 0x00, 0x00, 0x00, 0x10, 0x00, 0x00, 0x00, 0x04, 0x00, 0x00, 0x00,
  0x01, 0x00, 0x00, 0x00, 0x08, 0x00, 0x00, 0x00, 0x1a, 0x00, 0x00, 0x00,
  0x73, 0x65, 0x71, 0x75, 0x65, 0x6e, 0x74, 0x69, 0x61, 0x6c, 0x2f, 0x63,
  0x6f, 0x6e, 0x76, 0x32, 0x64, 0x5f, 0x31, 0x2f, 0x43, 0x6f, 0x6e, 0x76,
  0x32, 0x44, 0x00, 0x00, 0x58, 0xdd, 0xff, 0xff, 0x62, 0xde, 0xff, 0xff,
  0x04, 0x00, 0x00, 0x00, 0x80, 0x01, 0x00, 0x00, 0x73, 0x50, 0x6b, 0xbe,
  0x00, 0x3c, 0xf0, 0x3c, 0x9a, 0xb6, 0x0d, 0xbe, 0x2e, 0xcd, 0xaf, 0xbd,
  0x8d, 0x73, 0x9d, 0x3d, 0xa9, 0xa9, 0xbf, 0x3b, 0x65, 0xb9, 0x13, 0x3e,
  0x0f, 0x86, 0x68, 0x3d, 0x7c, 0x2c, 0xad, 0x3d, 0xd2, 0x6a, 0x06, 0x3e,
  0x3f, 0x06, 0xd4, 0x3d, 0x96, 0x7c, 0xcb, 0x3d, 0x30, 0xc7, 0x34, 0x3e,
  0x2a, 0x7c, 0x6f, 0xbe, 0x57, 0xfb, 0xe3, 0xbd, 0x10, 0x0b, 0xec, 0x3d,
  0xd3, 0xe7, 0xc3, 0xbd, 0x2e, 0x7e, 0xcb, 0xbd, 0x8f, 0x86, 0xf7, 0xbc,
  0x75, 0x0c, 0x1c, 0x3d, 0x55, 0xd0, 0x9f, 0xbc, 0xbf, 0x54, 0x54, 0xbd,
  0xc4, 0x79, 0x36, 0x3e, 0xad, 0xd6, 0x89, 0xbc, 0x2a, 0xd3, 0x43, 0xbe,
  0x2a, 0x19, 0x6d, 0x3e, 0x31, 0xfa, 0xac, 0xbe, 0x41, 0x92, 0x8a, 0xbe,
  0xd5, 0xe1, 0xdb, 0xbe, 0x5e, 0x24, 0x7d, 0x3c, 0xa0, 0x35, 0xac, 0x3d,
  0x65, 0x92, 0xd2, 0x3d, 0x0c, 0x78, 0x96, 0x3b, 0x6c, 0xe3, 0xda, 0xbd,
  0xba, 0x00, 0x19, 0x3e, 0xee, 0xd5, 0xba, 0xbd, 0xdf, 0x05, 0x42, 0xbe,
  0xfe, 0xe1, 0x95, 0x3d, 0x6d, 0x42, 0xb4, 0xbb, 0x7b, 0x98, 0x42, 0xbe,
  0x3a, 0xc8, 0x6b, 0x3d, 0x09, 0x74, 0xf5, 0x3c, 0xe9, 0x10, 0x00, 0xbc,
  0xcb, 0xd9, 0x06, 0xbd, 0xee, 0xcc, 0xc0, 0xbd, 0x12, 0xc3, 0x4b, 0x3e,
  0xaf, 0xd5, 0x32, 0xbe, 0x08, 0x81, 0x0a, 0x3e, 0xdc, 0x0d, 0x90, 0x3e,
  0xbb, 0x64, 0xf8, 0xbc, 0x70, 0xcd, 0xb3, 0x3b, 0xbb, 0x44, 0x2e, 0x3c,
  0xca, 0x03, 0x39, 0xbd, 0x89, 0x5b, 0xd6, 0xbd, 0x53, 0x17, 0x21, 0x3e,
  0x2b, 0x4d, 0xcf, 0x3d, 0xf2, 0x4e, 0xdd, 0x3d, 0x3d, 0xdf, 0x93, 0xbd,
  0x89, 0xe8, 0xcc, 0x3c, 0x6b, 0x05, 0xc0, 0xbd, 0x9b, 0xe6, 0xf5, 0xbb,
  0x7a, 0xb6, 0x93, 0xbe, 0xa2, 0x57, 0xce, 0xbd, 0xbe, 0x82, 0xbf, 0x3c,
  0x61, 0xd5, 0x1f, 0xbe, 0xcd, 0x4d, 0xd2, 0x3c, 0x24, 0x36, 0xbe, 0xbc,
  0x2f, 0x3b, 0x65, 0xbc, 0x93, 0x6c, 0x0d, 0xbe, 0x26, 0xda, 0x7a, 0xbe,
  0x84, 0x80, 0xa2, 0xbd, 0x7b, 0x00, 0xb7, 0xbd, 0x58, 0xb9, 0xd0, 0x3c,
  0x30, 0x88, 0x35, 0xbd, 0xfc, 0x65, 0x8f, 0x3d, 0x6f, 0x07, 0x1e, 0xbe,
  0xc5, 0xc1, 0x7f, 0xba, 0x28, 0x64, 0x8a, 0xbd, 0x92, 0x43, 0x2f, 0x3e,
  0xd9, 0x2f, 0xb0, 0x3c, 0x4a, 0x40, 0x7b, 0x3e, 0xc1, 0x0e, 0xb2, 0xbd,
  0xa3, 0xa9, 0x01, 0xbd, 0xac, 0x17, 0x8b, 0xbd, 0x29, 0x4c, 0xa2, 0xbe,
  0x0b, 0x42, 0x01, 0x3e, 0x2d, 0x7a, 0x21, 0xbd, 0xc8, 0x45, 0x23, 0x3b,
  0xd5, 0xa4, 0x9e, 0x3e, 0x41, 0x1e, 0x04, 0x3e, 0x8d, 0x00, 0xa4, 0x3e,
  0xa7, 0xfe, 0x9f, 0xbe, 0x3b, 0xf2, 0xf8, 0x3c, 0xab, 0xad, 0x04, 0xbc,
  0x75, 0x2f, 0x05, 0xbe, 0xe6, 0xce, 0x0b, 0xbe, 0xba, 0xdf, 0xff, 0xff,
  0x10, 0x00, 0x00, 0x00, 0x09, 0x00, 0x00, 0x00, 0x1c, 0x00, 0x00, 0x00,
  0x38, 0x00, 0x00, 0x00, 0x04, 0x00, 0x00, 0x00, 0x08, 0x00, 0x00, 0x00,
  0x04, 0x00, 0x00, 0x00, 0x03, 0x00, 0x00, 0x00, 0x01, 0x00, 0x00, 0x00,
  0x18, 0x00, 0x00, 0x00, 0x73, 0x65, 0x71, 0x75, 0x65, 0x6e, 0x74, 0x69,
  0x61, 0x6c, 0x2f, 0x63, 0x6f, 0x6e, 0x76, 0x32, 0x64, 0x2f, 0x43, 0x6f,
  0x6e, 0x76, 0x32, 0x44, 0x00, 0x00, 0x00, 0x00, 0x30, 0xdf, 0xff, 0xff,
  0x3a, 0xe0, 0xff, 0xff, 0x04, 0x00, 0x00, 0x00, 0x00, 0x01, 0x00, 0x00,
  0x67, 0x9d, 0xa9, 0x3d, 0xf9, 0xf3, 0x8e, 0x3e, 0x07, 0x08, 0x80, 0x3e,
  0x69, 0xb1, 0x0c, 0xbe, 0xd9, 0x4c, 0x24, 0x3d, 0x18, 0xc2, 0x4f, 0xbe,
  0x9b, 0x5f, 0x75, 0xbd, 0xaa, 0x1e, 0xf5, 0xbd, 0x57, 0xc0, 0xc2, 0x3d,
  0xbe, 0x0a, 0xd3, 0x3e, 0xbc, 0x29, 0x10, 0x3e, 0xe8, 0x51, 0x67, 0x3e,
  0xd7, 0xc5, 0xaf, 0x3e, 0x11, 0x25, 0x9a, 0xbd, 0x26, 0x3c, 0x85, 0x3e,
  0x9a, 0xc6, 0xa5, 0xbe, 0x8a, 0x98, 0x6e, 0x3d, 0xcf, 0xdd, 0x91, 0x3e,
  0x3e, 0xe4, 0x7b, 0x3e, 0x7d, 0xbc, 0xa7, 0xbd, 0xcb, 0x86, 0xdb, 0x3d,
  0x41, 0x77, 0x56, 0xbe, 0x15, 0x12, 0xae, 0xbd, 0x69, 0xa3, 0x84, 0xbd,
  0xbf, 0x16, 0x03, 0x3d, 0xea, 0x5e, 0xc0, 0x3e, 0xb5, 0xb6, 0x03, 0x3e,
  0x86, 0xad, 0x90, 0x3e, 0x7d, 0xbc, 0x8f, 0x3e, 0x00, 0x30, 0xc8, 0xbe,
  0x0a, 0xf9, 0x99, 0x3e, 0xfa, 0xeb, 0x8d, 0xbe, 0xf7, 0x9b, 0x20, 0x3d,
  0xae, 0x73, 0x4d, 0x3e, 0x2c, 0x1c, 0x38, 0x3c, 0x98, 0x75, 0x66, 0x3c,
  0x14, 0x53, 0x36, 0xbc, 0x5c, 0xa3, 0x48, 0xbe, 0x21, 0x71, 0xbc, 0xbd,
  0x43, 0x33, 0x3b, 0xbe, 0xcc, 0x63, 0x22, 0xbf, 0xba, 0x1f, 0x9e, 0x3e,
  0x30, 0xb3, 0x96, 0x3d, 0xb6, 0x57, 0x4e, 0x3e, 0xbe, 0x74, 0x10, 0xbe,
  0x94, 0x11, 0x68, 0x3e, 0x5b, 0xb7, 0x1c, 0xbe, 0xef, 0x37, 0xa7, 0xbe,
  0x5e, 0xd1, 0x5c, 0x3c, 0x8e, 0xe2, 0x98, 0x3e, 0xc7, 0xbb, 0x65, 0x3e,
  0x57, 0x7d, 0x02, 0xbe, 0x88, 0xbe, 0xb2, 0x3d, 0xde, 0xcb, 0x19, 0xbe,
  0xc0, 0x46, 0xc2, 0xbd, 0xc9, 0x41, 0xbb, 0xbd, 0x9d, 0x4f, 0x89, 0x3c,
  0x87, 0x42, 0xd8, 0x3e, 0xf5, 0x96, 0x8b, 0x3d, 0x91, 0x9f, 0x60, 0x3e,
  0x49, 0x92, 0x81, 0x3e, 0x5e, 0xfd, 0xb3, 0xbd, 0xa6, 0x48, 0xa7, 0x3e,
  0xc8, 0xea, 0xb1, 0xbe, 0x12, 0xe1, 0xff, 0xff, 0x10, 0x00, 0x00, 0x00,
  0x08, 0x00, 0x00, 0x00, 0x14, 0x00, 0x00, 0x00, 0x30, 0x00, 0x00, 0x00,
  0x02, 0x00, 0x00, 0x00, 0x04, 0x00, 0x00, 0x00, 0x10, 0x00, 0x00, 0x00,
  0x19, 0x00, 0x00, 0x00, 0x73, 0x65, 0x71, 0x75, 0x65, 0x6e, 0x74, 0x69,
  0x61, 0x6c, 0x2f, 0x64, 0x65, 0x6e, 0x73, 0x65, 0x5f, 0x31, 0x2f, 0x4d,
  0x61, 0x74, 0x4d, 0x75, 0x6c, 0x00, 0x00, 0x00, 0x80, 0xe0, 0xff, 0xff,
  0x8a, 0xe1, 0xff, 0xff, 0x04, 0x00, 0x00, 0x00, 0x00, 0x1c, 0x00, 0x00,
  0x6e, 0x0b, 0x70, 0xbe, 0xb7, 0xcf, 0x70, 0x3b, 0x40, 0x99, 0xfa, 0xbc,
  0xe0, 0x2c, 0x71, 0xbe, 0x98, 0x47, 0xc5, 0xbd, 0xcb, 0x33, 0x09, 0x3e,
  0x7e, 0x30, 0x8d, 0x3d, 0x3d, 0xae, 0x7a, 0x3e, 0x7b, 0x66, 0xf0, 0xbd,
  0xdf, 0xb6, 0xa6, 0x3e, 0x9e, 0x1d, 0x72, 0xbe, 0xe8, 0x68, 0x2d, 0x3e,
  0x20, 0x9c, 0x52, 0xbe, 0x74, 0x63, 0x86, 0xba, 0xe7, 0xc9, 0x9a, 0x3f,
  0xd3, 0x36, 0x71, 0xbe, 0x12, 0x74, 0x0b, 0xbe, 0x4f, 0xf1, 0x7f, 0xbe,
  0xdb, 0x89, 0x59, 0x3e, 0x0e, 0x09, 0x94, 0xbe, 0x3e, 0x61, 0x03, 0xbe,
  0x9b, 0x2d, 0xc4, 0x3e, 0xc1, 0x51, 0x91, 0xbe, 0x59, 0x3a, 0xdc, 0xbe,
  0x57, 0x27, 0xb5, 0xbc, 0xdc, 0xb2, 0x9d, 0x3d, 0x5b, 0x0d, 0x08, 0x3e,
  0xc1, 0xcb, 0x04, 0xbd, 0x77, 0x50, 0xed, 0xbd, 0x77, 0x37, 0x91, 0xbe,
  0xcb, 0x74, 0xb0, 0x3f, 0x88, 0xcb, 0x84, 0x3d, 0x1c, 0x3a, 0x1c, 0xbd,
  0x0e, 0x89, 0x07, 0xbe, 0x61, 0xab, 0xbd, 0x3e, 0x7e, 0x31, 0x06, 0x3e,
  0x5a, 0xfa, 0x99, 0xbe, 0xc5, 0x1e, 0xd4, 0x3e, 0xc5, 0x1f, 0x8a, 0xbc,
  0xd4, 0x05, 0x91, 0xbc, 0x6c, 0x3b, 0x1c, 0xbd, 0x11, 0x14, 0xb1, 0x3d,
  0x00, 0x68, 0x72, 0xbd, 0x02, 0x35, 0x38, 0x3d, 0x22, 0x01, 0x5e, 0xbd,
  0x8a, 0x4a, 0x70, 0xbe, 0xa5, 0x8e, 0xa0, 0x3f, 0x3b, 0x3c, 0xf6, 0x3d,
  0xaf, 0x51, 0xa8, 0xbd, 0x27, 0x57, 0x0f, 0xbe, 0x57, 0xf4, 0x75, 0x3e,
  0x23, 0x4e, 0xb2, 0xbd, 0x0f, 0x5e, 0x2f, 0xbd, 0xd8, 0xe3, 0xbd, 0x3d,
  0xf9, 0x31, 0xea, 0xbc, 0x98, 0x7f, 0xa5, 0x3c, 0x68, 0xbd, 0x49, 0xbd,
  0x16, 0x22, 0x08, 0x3e, 0x25, 0xe0, 0xbf, 0x3d, 0xb7, 0x72, 0x41, 0xbe,
  0xe9, 0x59, 0x3c, 0x3d, 0x58, 0x36, 0x11, 0xbe, 0x71, 0xfa, 0x7d, 0x3f,
  0xc0, 0x0b, 0x66, 0xbd, 0x45, 0x18, 0x58, 0xbe, 0x87, 0xd2, 0xce, 0xbb,
  0x3f, 0x48, 0x2e, 0x3e, 0xc8, 0xa7, 0x66, 0x3d, 0x0e, 0x74, 0xa8, 0xbd,
  0x77, 0x47, 0x79, 0x3e, 0xea, 0x94, 0x6c, 0xbd, 0x17, 0xb9, 0x18, 0x3e,
  0xa2, 0x67, 0xd1, 0xbd, 0xfa, 0xa7, 0x2b, 0x3e, 0x94, 0x14, 0x28, 0x3d,
  0x97, 0x06, 0xff, 0xbc, 0x40, 0xa6, 0x1d, 0x3e, 0x84, 0xac, 0x77, 0xbe,
  0x8d, 0x16, 0x90, 0x3f, 0x94, 0x64, 0x1a, 0xbe, 0x8f, 0x2b, 0xb0, 0xbd,
  0x31, 0x1c, 0x1f, 0x3e, 0x06, 0xfb, 0x42, 0x3e, 0x12, 0x36, 0xb1, 0xbd,
  0xd2, 0x21, 0xb9, 0xbc, 0x56, 0x87, 0x9d, 0x3e, 0x3f, 0xd9, 0x1c, 0xbc,
  0xb4, 0x95, 0x90, 0x3d, 0x61, 0x4d, 0x9c, 0xbd, 0x67, 0xbe, 0x23, 0xbd,
  0x1d, 0x4c, 0x72, 0x3d, 0x55, 0xcb, 0x9f, 0x3d, 0x73, 0x77, 0xde, 0xbd,
  0xeb, 0x82, 0x85, 0xbe, 0x5b, 0x92, 0xa5, 0x3f, 0xfb, 0x1d, 0xd9, 0xbd,
  0x8e, 0x3b, 0x15, 0xbc, 0xed, 0xd9, 0x3d, 0x3d, 0xc0, 0xf3, 0x14, 0x3e,
  0x9f, 0xe6, 0x8c, 0xbd, 0xae, 0x66, 0xa4, 0xbd, 0x29, 0x2c, 0x4e, 0x3e,
  0x09, 0x4a, 0x9e, 0xbd, 0x67, 0x28, 0x4d, 0x3e, 0x3c, 0xb3, 0x51, 0xbd,
  0x00, 0x68, 0x80, 0x3d, 0xc4, 0x38, 0xf4, 0xbd, 0x44, 0xf1, 0xa9, 0x3c,
  0xd9, 0xc7, 0x9b, 0xbd, 0x36, 0x17, 0xe7, 0x3d, 0x6b, 0x07, 0xeb, 0x3c,
  0x4d, 0x9c, 0x84, 0xbc, 0xef, 0x4a, 0x34, 0x3d, 0x21, 0xf1, 0x3a, 0xbd,
  0xf9, 0xb5, 0x9b, 0x3d, 0x30, 0x02, 0xcb, 0xbc, 0xfe, 0x2d, 0xbd, 0xbe,
  0xdd, 0x23, 0x64, 0xbe, 0xc1, 0x03, 0xdc, 0x3b, 0x5f, 0x20, 0x97, 0xbd,
  0xe0, 0x96, 0x8b, 0xbb, 0xbf, 0xc4, 0x1a, 0xbf, 0x6e, 0x4f, 0x66, 0x3d,
  0xd8, 0x1c, 0x9c, 0x3e, 0x91, 0x10, 0xac, 0x3e, 0x38, 0x15, 0xe1, 0x3e,
  0x51, 0xd1, 0x2b, 0xba, 0xa4, 0x15, 0x4b, 0x3c, 0x66, 0xf0, 0x2b, 0xbb,
  0x1f, 0xb8, 0xdb, 0xbd, 0x41, 0x32, 0xcb, 0x3c, 0xcb, 0x38, 0x4e, 0x3e,
  0xf0, 0xea, 0x0e, 0xbe, 0xa9, 0x59, 0x30, 0xbe, 0xf3, 0xb0, 0xec, 0xbd,
  0xe9, 0x6a, 0x07, 0x3e, 0x06, 0xef, 0x58, 0x3d, 0x07, 0xc1, 0x1d, 0xbf,
  0xcb, 0xa7, 0xbb, 0xbd, 0x6a, 0x6f, 0x10, 0xbe, 0x59, 0x19, 0x8b, 0x3d,
  0x9d, 0x10, 0xd8, 0xbc, 0x74, 0xb5, 0xbf, 0xbe, 0x17, 0x02, 0x18, 0x3e,
  0x2b, 0x92, 0xf9, 0xbc, 0xaf, 0x7d, 0x43, 0xbd, 0x53, 0xbd, 0x0b, 0x3d,
  0xcf, 0x60, 0xa1, 0x3d, 0x53, 0x25, 0x28, 0xbd, 0xbd, 0xa8, 0xb6, 0x3d,
  0x61, 0x89, 0xd6, 0xbd, 0x89, 0x2f, 0x82, 0x3d, 0x89, 0x01, 0x47, 0x3d,
  0x7e, 0xd5, 0xc4, 0xbe, 0x78, 0xd7, 0x05, 0x3e, 0xcd, 0x8f, 0x5a, 0xbd,
  0xda, 0xaf, 0x7b, 0xbc, 0x7b, 0x5d, 0x66, 0xbc, 0x06, 0x2e, 0x02, 0x3d,
  0x0f, 0x90, 0xfa, 0x3c, 0xa1, 0xa2, 0x33, 0xbd, 0x91, 0xdd, 0xa5, 0xbd,
  0x36, 0xb1, 0x31, 0xbe, 0x0a, 0xc4, 0xe9, 0x3d, 0xa2, 0x51, 0xc4, 0x3d,
  0x7c, 0xda, 0xbf, 0x3e, 0xe9, 0xe0, 0x96, 0x3c, 0xea, 0x8a, 0xa1, 0x3d,
  0xd8, 0x74, 0xa0, 0x3d, 0x66, 0xac, 0x23, 0xbe, 0x01, 0x46, 0x92, 0x3c,
  0xec, 0x98, 0x9f, 0x3d, 0x1d, 0x29, 0xc5, 0xbc, 0xf6, 0x04, 0x00, 0xbe,
  0x4c, 0xdf, 0x0d, 0x3e, 0x00, 0x88, 0x84, 0x3c, 0x44, 0x61, 0xcd, 0xbb,
  0x86, 0xcc, 0xee, 0xbd, 0xfc, 0xb9, 0xb0, 0xbe, 0x28, 0x8e, 0xe0, 0x3d,
  0xbf, 0x7b, 0xec, 0x3d, 0x40, 0xc5, 0x3e, 0x3e, 0x2e, 0x21, 0xe6, 0x3a,
  0x04, 0x3d, 0xa6, 0x3c, 0x65, 0x70, 0x35, 0x3d, 0x04, 0x87, 0xe1, 0xbe,
  0x88, 0xc3, 0x1c, 0x3d, 0x49, 0x65, 0xef, 0xbc, 0x8e, 0xa1, 0x88, 0x3c,
  0xb0, 0x18, 0x7c, 0xbd, 0xa4, 0x60, 0x54, 0x3e, 0x6a, 0x60, 0x96, 0x3d,
  0x8a, 0x80, 0x7f, 0xbd, 0x53, 0x50, 0xb0, 0xbe, 0x2e, 0x52, 0x5c, 0xbf,
  0x66, 0x73, 0xbb, 0x3c, 0xce, 0x99, 0xaa, 0xbd, 0xa7, 0xc0, 0x33, 0x3d,
  0xc2, 0x69, 0x35, 0xbb, 0xc6, 0xb4, 0x9e, 0x3d, 0xd0, 0xb4, 0x25, 0xbe,
  0x61, 0xf3, 0x31, 0xbf, 0xdb, 0xb1, 0x73, 0x3d, 0x15, 0x6b, 0x1c, 0xbe,
  0xbd, 0xce, 0xc9, 0x3d, 0xe7, 0x39, 0xb5, 0x3d, 0x4b, 0x12, 0xf8, 0x3e,
  0x23, 0x51, 0x70, 0x3d, 0x2f, 0xaa, 0xa2, 0xbc, 0x35, 0xc8, 0x8b, 0xbe,
  0x0b, 0x36, 0xf4, 0xbe, 0x12, 0xb3, 0xaa, 0x3d, 0x86, 0x60, 0x3b, 0x3d,
  0x99, 0x33, 0xad, 0xbe, 0x19, 0x59, 0x3d, 0xbe, 0x54, 0x69, 0x99, 0x3d,
  0x9e, 0x33, 0xdb, 0xbd, 0x56, 0x79, 0x45, 0xbe, 0x72, 0xfb, 0x00, 0xbe,
  0x6d, 0xf5, 0xf8, 0xbd, 0xb3, 0x53, 0x2f, 0xbc, 0xe6, 0x42, 0x61, 0xbe,
  0x33, 0x00, 0x91, 0x3e, 0xdd, 0x67, 0xc5, 0x3c, 0x39, 0xa4, 0x53, 0xbe,
  0x62, 0x13, 0x5e, 0xbd, 0x21, 0x56, 0xa0, 0x3d, 0x3b, 0x18, 0xdb, 0xbd,
  0x6b, 0x2c, 0x0d, 0xbe, 0x8a, 0xae, 0xba, 0x3e, 0x89, 0x9d, 0x7d, 0x3d,
  0x7e, 0x6e, 0xb2, 0x3d, 0x94, 0x5c, 0x09, 0x3e, 0xf7, 0x47, 0xc4, 0x3d,
  0x68, 0x57, 0x2b, 0x3e, 0xc7, 0x0c, 0xbd, 0x3d, 0xf4, 0x3c, 0x41, 0x3e,
  0xce, 0xdc, 0xe8, 0x3d, 0x1b, 0x37, 0x74, 0x3f, 0xf5, 0xa4, 0xdc, 0x3b,
  0xdf, 0x2b, 0x99, 0xbe, 0x09, 0xa2, 0x34, 0x3c, 0x65, 0xa5, 0x01, 0x3e,
  0x8c, 0xec, 0x48, 0x3d, 0x0c, 0xd3, 0x49, 0xbd, 0x7a, 0xa4, 0x39, 0x3e,
  0x17, 0xfb, 0x86, 0x3c, 0x64, 0xc4, 0xd5, 0xbc, 0xdf, 0x3f, 0xe7, 0x3d,
  0x75, 0x28, 0x80, 0x3d, 0x2f, 0x7e, 0xc4, 0x3d, 0x07, 0xfd, 0x29, 0x3e,
  0xd2, 0xec, 0x72, 0xbe, 0x29, 0x7d, 0x85, 0xbc, 0xad, 0x63, 0x9e, 0x3f,
  0x5f, 0x56, 0x8c, 0xbd, 0xb1, 0x50, 0x47, 0xbe, 0x01, 0xc3, 0x30, 0x3c,
  0x99, 0x35, 0x18, 0x3d, 0x1c, 0x3e, 0x51, 0x3e, 0x37, 0x67, 0xc5, 0x3c,
  0xf1, 0x8a, 0xda, 0x3d, 0x36, 0x38, 0xb0, 0x3d, 0xde, 0xe1, 0x31, 0xbd,
  0xb4, 0xea, 0x00, 0x3e, 0x25, 0x31, 0xa7, 0x3d, 0xb2, 0xba, 0x39, 0x3d,
  0x97, 0x49, 0xe9, 0x3c, 0x1c, 0xdf, 0x16, 0xbe, 0xd1, 0x9d, 0x92, 0xbd,
  0x85, 0xc9, 0x63, 0x3f, 0x8d, 0x51, 0xac, 0xbd, 0xeb, 0xb8, 0x80, 0xbe,
  0x66, 0x0c, 0x82, 0x3c, 0x45, 0xe8, 0x90, 0xbd, 0x19, 0x8c, 0xc0, 0x3d,
  0x03, 0xa5, 0x9f, 0x3d, 0xb7, 0x3a, 0xcb, 0x3d, 0xdc, 0x2f, 0xa7, 0x3d,
  0x6c, 0xdc, 0x6b, 0xbd, 0x4d, 0x26, 0x85, 0x3c, 0x35, 0xec, 0x50, 0x3d,
  0x72, 0x71, 0x65, 0x3e, 0x76, 0xc8, 0xd3, 0xbc, 0x05, 0xc4, 0xb3, 0xbd,
  0xda, 0x09, 0x58, 0xbd, 0xa4, 0x1d, 0x51, 0x3f, 0xc8, 0xde, 0x81, 0x3c,
  0x04, 0x3d, 0x5b, 0xbe, 0x5c, 0x00, 0xf3, 0x3b, 0xed, 0x0e, 0xef, 0x3c,
  0x45, 0xe6, 0xb1, 0x3c, 0x30, 0x71, 0x69, 0x3d, 0x41, 0x4d, 0xa4, 0x3e,
  0xbf, 0xf6, 0xe7, 0x3c, 0x03, 0xf5, 0x3d, 0x3d, 0x89, 0xc1, 0x3e, 0xbe,
  0x04, 0xe9, 0xd7, 0x3d, 0xa3, 0x2f, 0xa2, 0xbe, 0x91, 0x3d, 0xa0, 0xbc,
  0x27, 0xce, 0x89, 0xbc, 0x95, 0x68, 0x6a, 0xbc, 0xd7, 0x24, 0x57, 0x3f,
  0x38, 0x23, 0x64, 0xbe, 0x4f, 0x91, 0x79, 0xbe, 0xa0, 0x41, 0x3f, 0xbc,
  0x83, 0xc1, 0x92, 0xbc, 0xad, 0x68, 0x2b, 0xbd, 0x12, 0xe7, 0x1f, 0xbd,
  0xa9, 0x1b, 0xa9, 0x3e, 0x4f, 0x88, 0x7f, 0xbd, 0x81, 0x62, 0x74, 0x3d,
  0x90, 0x51, 0x2f, 0xbe, 0x63, 0xc7, 0x05, 0x3d, 0xfb, 0x80, 0xd1, 0xbc,
  0xa0, 0x72, 0x74, 0xbb, 0x07, 0x82, 0xab, 0xbc, 0x76, 0x82, 0xa5, 0x3c,
  0xcd, 0xa1, 0xc4, 0x3f, 0xba, 0xd2, 0xb1, 0xbc, 0xa7, 0xe1, 0xe2, 0xbd,
  0x2f, 0x52, 0x92, 0x3c, 0xe7, 0xe2, 0xae, 0xbd, 0xc5, 0x12, 0x46, 0xbc,
  0x6d, 0xa2, 0x26, 0x3d, 0xf6, 0x0f, 0x95, 0x3d, 0xc4, 0x0c, 0xde, 0x3b,
  0x21, 0x52, 0xba, 0x3d, 0x3b, 0x12, 0x30, 0xbd, 0xb7, 0xf4, 0x65, 0x3b,
  0xe4, 0x5d, 0xeb, 0x3d, 0xf9, 0xe4, 0x29, 0xbc, 0xe8, 0x35, 0x4c, 0xbd,
  0x05, 0xd4, 0xa5, 0x3d, 0xf7, 0x7a, 0x19, 0x3d, 0xd4, 0xf3, 0xff, 0x3d,
  0xb3, 0x46, 0x41, 0x3e, 0x5a, 0xb8, 0x20, 0x3e, 0xf7, 0xee, 0x96, 0xbd,
  0xd8, 0xb9, 0x05, 0x3e, 0x67, 0x6c, 0x9a, 0x3e, 0xf0, 0x7e, 0xfb, 0xbd,
  0x6f, 0x21, 0xa1, 0xbe, 0x67, 0x79, 0x08, 0xbe, 0xbd, 0xec, 0x75, 0xbd,
  0x81, 0x67, 0x85, 0xbd, 0x5b, 0x15, 0x37, 0xbe, 0x99, 0x62, 0x91, 0xbe,
  0x67, 0x09, 0x28, 0xbe, 0x04, 0x95, 0xb1, 0xbe, 0x34, 0x81, 0x2a, 0x3e,
  0x1d, 0x74, 0x8f, 0x3d, 0x65, 0x30, 0xeb, 0xbd, 0x28, 0x25, 0xef, 0xbd,
  0xfc, 0xa6, 0x75, 0xbc, 0xfd, 0x48, 0x8c, 0xbd, 0x0d, 0xa8, 0x05, 0x3e,
  0x4e, 0xe2, 0x1e, 0x3d, 0x80, 0x44, 0x1a, 0x3e, 0x5d, 0x8d, 0x37, 0x3e,
  0x7f, 0xe0, 0xfe, 0x3d, 0x44, 0xcd, 0xa4, 0xbd, 0x7a, 0x87, 0x2e, 0x3e,
  0xe9, 0x39, 0xa6, 0xbe, 0xb6, 0xc6, 0x0b, 0x3e, 0x87, 0xc4, 0x5f, 0xbe,
  0xe3, 0x7b, 0x07, 0xbe, 0x5f, 0x54, 0xaa, 0x3c, 0xa2, 0x32, 0xb5, 0xbe,
  0x86, 0x32, 0x01, 0xbe, 0x67, 0xee, 0xae, 0x3d, 0xfd, 0xab, 0xeb, 0xbe,
  0x55, 0x46, 0xb4, 0xbd, 0xd1, 0xe0, 0x2c, 0x3d, 0xa4, 0xd3, 0xfe, 0x3d,
  0xd9, 0xd4, 0x31, 0x3c, 0x05, 0x92, 0xf8, 0x3d, 0x92, 0x0e, 0xf4, 0xbc,
  0x89, 0x97, 0x98, 0x3d, 0x62, 0x3d, 0x2e, 0x3c, 0x17, 0xa7, 0xc1, 0xbc,
  0x4b, 0xd8, 0x4b, 0x3c, 0x0a, 0x25, 0xda, 0xbc, 0xf6, 0xb7, 0x3c, 0xbe,
  0x49, 0xf0, 0x30, 0xbe, 0x96, 0x1c, 0x17, 0x3a, 0xa3, 0xaf, 0xb2, 0xbd,
  0xb7, 0xe8, 0xf2, 0xbe, 0xfb, 0x5e, 0xeb, 0xbe, 0xcd, 0x54, 0xe7, 0xbd,
  0x64, 0xe8, 0xab, 0x3d, 0xa4, 0x2d, 0x40, 0xbd, 0x9d, 0x73, 0xa5, 0x3d,
  0xba, 0x98, 0xed, 0x3c, 0x96, 0x57, 0xff, 0x3d, 0xcb, 0x48, 0x0f, 0xbe,
  0xc3, 0x6f, 0x4e, 0x3e, 0x8f, 0xf7, 0x3a, 0x3e, 0x60, 0x48, 0x63, 0xbd,
  0x2e, 0xf0, 0xc8, 0xbe, 0xe9, 0x82, 0x29, 0xbe, 0x6c, 0xd5, 0x7c, 0xbc,
  0xec, 0x24, 0x5c, 0xbd, 0x48, 0x97, 0x2d, 0xbe, 0x6f, 0x75, 0x8c, 0xbe,
  0x87, 0x96, 0xdc, 0xbd, 0xa2, 0x1a, 0xa1, 0xbd, 0x53, 0xad, 0x6f, 0xbd,
  0x35, 0x12, 0xfd, 0xbd, 0x0d, 0xba, 0x07, 0xbd, 0x90, 0x6a, 0x83, 0x3b,
  0xbb, 0xe6, 0x46, 0xbd, 0xc2, 0x33, 0x54, 0x3e, 0x0a, 0xc9, 0x41, 0x3e,
  0x78, 0xed, 0x34, 0xbd, 0x63, 0x4b, 0x00, 0xbe, 0x79, 0x37, 0xf6, 0xbd,
  0xf8, 0xbf, 0x7f, 0xbe, 0x9c, 0xbb, 0x1d, 0xbc, 0x8f, 0xbb, 0x6d, 0xbe,
  0xac, 0xf4, 0x71, 0xbe, 0x2f, 0xcc, 0x41, 0xbd, 0x91, 0x66, 0xa9, 0x3c,
  0x0e, 0x1b, 0xcd, 0xbc, 0x80, 0x32, 0x89, 0xbc, 0xbb, 0x2e, 0xa2, 0x3d,
  0x34, 0x7a, 0x4b, 0x3e, 0xa8, 0xc0, 0x45, 0x3d, 0x48, 0x29, 0xc5, 0x3d,
  0xfc, 0x96, 0x64, 0x3e, 0x4c, 0x86, 0x81, 0x3e, 0xa5, 0x2c, 0xed, 0xbd,
  0x4f, 0x93, 0x8f, 0xbe, 0x3b, 0x21, 0x7d, 0xbd, 0xb7, 0xa5, 0x1f, 0x3e,
  0x4b, 0x42, 0xe4, 0xbe, 0x9f, 0x51, 0xcf, 0xbe, 0x57, 0xdc, 0x3c, 0xbd,
  0xc8, 0x63, 0x25, 0xbe, 0x41, 0x12, 0x4a, 0xbe, 0x91, 0x07, 0x0a, 0x3d,
  0x2c, 0xce, 0xa4, 0xbd, 0x1c, 0x80, 0x42, 0xbe, 0x28, 0x1b, 0x73, 0x3d,
  0x0a, 0x0f, 0xab, 0xbd, 0xbc, 0x25, 0x64, 0x3d, 0x91, 0xd3, 0xd0, 0xbe,
  0xb7, 0x63, 0x83, 0xbd, 0x9a, 0xd7, 0xc1, 0x3c, 0x3d, 0x00, 0xb5, 0xbe,
  0x7f, 0xe5, 0xb6, 0xbe, 0x25, 0x4f, 0xc2, 0x3d, 0x9c, 0x86, 0xd3, 0xbd,
  0x62, 0xa2, 0x95, 0x39, 0x05, 0x2f, 0x7f, 0xbc, 0x7e, 0x65, 0x82, 0xbc,
  0x29, 0x95, 0x53, 0xbe, 0x97, 0x55, 0xff, 0xbb, 0x1d, 0x44, 0x70, 0xbe,
  0x39, 0x58, 0x89, 0xbe, 0xad, 0x2e, 0xbf, 0xbd, 0xf4, 0xeb, 0x98, 0xbe,
  0xd5, 0xe2, 0x01, 0xbe, 0x0d, 0x98, 0x00, 0xbd, 0x45, 0x50, 0x39, 0xbe,
  0x3e, 0x5b, 0x8b, 0xbd, 0xa0, 0xaa, 0x15, 0xbe, 0xfc, 0x01, 0x79, 0x3d,
  0xeb, 0x7f, 0x47, 0xbe, 0x2b, 0x71, 0x29, 0xbe, 0xf4, 0x67, 0x56, 0xbe,
  0x17, 0xee, 0x48, 0xbd, 0x11, 0x13, 0x14, 0xbd, 0x29, 0xfa, 0x67, 0xbd,
  0x12, 0xce, 0x03, 0xbe, 0xf8, 0x8c, 0xc4, 0x3d, 0x03, 0xff, 0x0b, 0xbd,
  0xad, 0xf8, 0x7e, 0xbd, 0x86, 0xd8, 0x45, 0xbe, 0x3c, 0xcb, 0x83, 0x3d,
  0xa1, 0x82, 0xc0, 0xbc, 0x2f, 0x37, 0x66, 0xbe, 0x1d, 0x2c, 0xd6, 0xbe,
  0x70, 0x7b, 0x04, 0x3d, 0x3c, 0x06, 0x27, 0xbe, 0x4b, 0xd1, 0x88, 0x3d,
  0x72, 0xfc, 0xb8, 0xbd, 0x24, 0x7e, 0x89, 0xbe, 0xe4, 0x59, 0x34, 0xbe,
  0x17, 0x5d, 0x6a, 0xbe, 0x61, 0xc3, 0x15, 0xbe, 0x34, 0x8a, 0x8e, 0xbe,
  0x72, 0x41, 0x2e, 0xbe, 0x85, 0x25, 0x5c, 0xbe, 0x06, 0xc6, 0xfe, 0x3d,
  0xf1, 0x62, 0x41, 0xbd, 0x5f, 0xcd, 0x27, 0xbe, 0x70, 0xa2, 0xc7, 0xbd,
  0x6f, 0xcf, 0x2d, 0xbe, 0x99, 0x6f, 0x7c, 0xbd, 0x39, 0xc3, 0x3d, 0xbe,
  0x2e, 0x38, 0xde, 0xbb, 0xc5, 0xec, 0x76, 0xbe, 0x0a, 0xec, 0x9c, 0xbe,
  0x4c, 0xae, 0x2c, 0xbd, 0xd5, 0x38, 0x32, 0xbe, 0x42, 0xd6, 0x50, 0xbe,
  0x1e, 0xc5, 0xc0, 0xbe, 0xf1, 0x39, 0x3a, 0xbe, 0x21, 0x6f, 0x6c, 0xbe,
  0xa0, 0x3d, 0x35, 0x3d, 0x4b, 0xfa, 0x72, 0xbd, 0x54, 0x52, 0x6b, 0xbd,
  0x00, 0xf7, 0x67, 0x3c, 0x7a, 0x64, 0xd6, 0xbd, 0x28, 0x6c, 0x84, 0xbd,
  0x40, 0x02, 0x19, 0xbe, 0x36, 0x5a, 0x46, 0xbe, 0xd2, 0xfd, 0x56, 0xbe,
  0x7c, 0x9a, 0x92, 0xbe, 0x08, 0x8e, 0x92, 0xbd, 0xa9, 0x81, 0x85, 0xbe,
  0x8c, 0x47, 0x4d, 0xbe, 0xc0, 0xed, 0xd2, 0xbe, 0x26, 0xd1, 0xbb, 0x3b,
  0xfd, 0xcc, 0x99, 0xbd, 0x42, 0x8c, 0x69, 0xbd, 0x79, 0xda, 0x2b, 0xbe,
  0x09, 0x14, 0xcb, 0xbd, 0xbc, 0x66, 0xa5, 0xbe, 0xdc, 0xbe, 0x96, 0x3d,
  0xda, 0x2f, 0x09, 0x3c, 0xc1, 0x84, 0xad, 0xbe, 0x20, 0xac, 0x69, 0x3d,
  0xb3, 0x3e, 0x0e, 0xbd, 0xfd, 0x95, 0x25, 0xbe, 0x33, 0x21, 0x36, 0x3e,
  0x0b, 0x8f, 0x4f, 0xbe, 0xe1, 0x6d, 0xc3, 0x3d, 0xf3, 0x27, 0x01, 0xbe,
  0x33, 0xc5, 0x21, 0x3c, 0xcc, 0x93, 0x5f, 0xbe, 0x9c, 0x1e, 0x0a, 0xbe,
  0xaf, 0x02, 0x9d, 0x3b, 0xe8, 0xe7, 0x87, 0xbe, 0xfb, 0xb8, 0xc0, 0xbe,
  0x02, 0xc8, 0x0c, 0x3e, 0x62, 0x0c, 0xbc, 0xbc, 0x26, 0x70, 0xfd, 0xbc,
  0xc9, 0xcf, 0x5b, 0xbd, 0x16, 0x07, 0xb2, 0x3c, 0x01, 0xf1, 0xd2, 0xbd,
  0x15, 0xd1, 0x4c, 0xbd, 0xca, 0x2b, 0x80, 0xbd, 0x3b, 0xff, 0x6f, 0x3e,
  0x26, 0x99, 0xaa, 0xbd, 0x0e, 0x7c, 0x20, 0xbe, 0x2b, 0xcb, 0x1f, 0xbe,
  0x03, 0x93, 0x32, 0xbe, 0xcb, 0x89, 0xbe, 0x3d, 0xb1, 0x03, 0xad, 0xbc,
  0x50, 0x05, 0x7a, 0xbe, 0x10, 0xde, 0x9b, 0xbd, 0x3e, 0xfa, 0x1c, 0x3e,
  0x0b, 0x43, 0x77, 0xbe, 0x84, 0x4c, 0x66, 0xbd, 0x0a, 0xcd, 0x02, 0x3e,
  0xee, 0xaf, 0x66, 0xbd, 0x21, 0xd9, 0xb4, 0xbc, 0xb2, 0xc4, 0xca, 0xbd,
  0x34, 0xd8, 0x98, 0xbd, 0x67, 0x61, 0xe8, 0x3c, 0xf2, 0xce, 0xc6, 0x3e,
  0x65, 0x12, 0x6e, 0xbd, 0xc1, 0x86, 0x1c, 0xbf, 0x8f, 0xf3, 0xf7, 0xbc,
  0x0c, 0x33, 0x21, 0x3d, 0x12, 0x44, 0xd8, 0x3b, 0xd4, 0xb8, 0xbd, 0x3d,
  0xaa, 0xe5, 0xe8, 0x3d, 0x7c, 0x3d, 0x1e, 0xbe, 0x0d, 0x5c, 0xf6, 0xbd,
  0x02, 0x1d, 0x75, 0x3d, 0x69, 0x29, 0xd4, 0xbd, 0x69, 0x6a, 0x98, 0xbc,
  0x4f, 0xbc, 0xef, 0xbc, 0x6f, 0xca, 0x74, 0x3d, 0x21, 0x10, 0x5e, 0xbe,
  0x81, 0xd9, 0xcd, 0x3d, 0x74, 0xc6, 0x8a, 0x3e, 0xbc, 0x47, 0xae, 0xbe,
  0x70, 0x54, 0xbe, 0xbd, 0x5b, 0x33, 0x4f, 0x3e, 0x09, 0xee, 0x23, 0xbe,
  0xb4, 0xfa, 0xcc, 0xbb, 0x7b, 0x44, 0xe7, 0x3d, 0xb9, 0x22, 0xe4, 0xbc,
  0x7a, 0x37, 0xb1, 0xbd, 0x63, 0xfd, 0xd6, 0x3c, 0xa1, 0x76, 0x2f, 0xbd,
  0x72, 0x50, 0x1a, 0x3c, 0x69, 0x8c, 0xf6, 0xbd, 0x19, 0xea, 0x2a, 0x3e,
  0x3f, 0x52, 0xad, 0xbe, 0x60, 0x16, 0xa5, 0xbd, 0xb0, 0x3e, 0x2a, 0x3e,
  0xa5, 0x20, 0xab, 0xbe, 0xef, 0xa7, 0x45, 0xbd, 0x81, 0xd9, 0xbb, 0x3d,
  0xd8, 0xba, 0xb7, 0x3c, 0x5b, 0x0c, 0x8c, 0x3d, 0xd8, 0x4a, 0x4b, 0x3e,
  0x5e, 0x69, 0x69, 0xbd, 0xbc, 0x4e, 0x08, 0xbc, 0xe7, 0x1c, 0x10, 0x3e,
  0x33, 0x03, 0x07, 0xbe, 0xdd, 0x8f, 0x31, 0x3d, 0xd7, 0x16, 0x87, 0x3d,
  0xc4, 0x97, 0xfc, 0x3d, 0x92, 0x9e, 0xa1, 0xbd, 0xf2, 0x6c, 0xc4, 0x3d,
  0xf6, 0x92, 0xf8, 0x3d, 0xdf, 0x40, 0x98, 0xbe, 0x1f, 0x1e, 0x87, 0xbd,
  0x19, 0x67, 0xb2, 0xbd, 0x16, 0xf7, 0x02, 0xbe, 0xdb, 0xef, 0x7e, 0xbe,
  0xa9, 0xce, 0xaf, 0x3d, 0xb7, 0x88, 0xfc, 0xbc, 0xaf, 0xe8, 0xb0, 0xbb,
  0x40, 0x6d, 0x2e, 0x3d, 0x8e, 0xd6, 0xa0, 0xbe, 0xea, 0xf7, 0xe5, 0xbd,
  0xa6, 0xb3, 0xcb, 0x3c, 0x08, 0x8a, 0xa5, 0x3e, 0x84, 0xd7, 0x5c, 0xbe,
  0x38, 0x14, 0xba, 0x3d, 0x91, 0x44, 0x67, 0xbd, 0xd0, 0xff, 0x1f, 0xbf,
  0x65, 0x64, 0xbd, 0xbd, 0x75, 0x00, 0x6f, 0xbd, 0xcf, 0x93, 0xe2, 0xbe,
  0x14, 0x1b, 0xd1, 0xbe, 0x91, 0x2f, 0x1e, 0x3e, 0xd1, 0x5a, 0x68, 0xbe,
  0xed, 0x30, 0x84, 0x3c, 0xce, 0x79, 0xb2, 0xbc, 0x4c, 0xc8, 0x1d, 0x3d,
  0xb9, 0x31, 0x1b, 0xbe, 0x14, 0xab, 0x08, 0xbe, 0x1f, 0x62, 0x6f, 0x3e,
  0xcf, 0x1a, 0x9e, 0xbe, 0x3e, 0xe8, 0x85, 0x3e, 0x66, 0xe9, 0xa7, 0x3e,
  0x16, 0x78, 0x5b, 0xbe, 0x5c, 0x74, 0xb4, 0x3d, 0xa9, 0x2f, 0x81, 0xbd,
  0xb8, 0xba, 0x33, 0xbe, 0x0c, 0x68, 0x88, 0xbe, 0xc3, 0xdd, 0x46, 0x3c,
  0x1f, 0xd0, 0xe4, 0xbd, 0xb6, 0x54, 0x2e, 0xbe, 0x75, 0xf7, 0xba, 0xbe,
  0x9a, 0x48, 0x0a, 0x3a, 0x56, 0xb2, 0x7f, 0xbe, 0x99, 0x98, 0xdc, 0xbe,
  0x48, 0x0f, 0x35, 0x3d, 0x58, 0xe0, 0x61, 0xbe, 0xc8, 0xb8, 0x7a, 0xbe,
  0xed, 0xca, 0x42, 0xbd, 0xee, 0x91, 0xaf, 0x3e, 0x5e, 0x9b, 0xef, 0x3c,
  0xa4, 0x06, 0x51, 0xbd, 0x28, 0x8b, 0x1d, 0x3e, 0xd8, 0xab, 0xc1, 0xbb,
  0x43, 0xe9, 0xff, 0xbc, 0x2f, 0x31, 0x66, 0xbd, 0x3a, 0x69, 0xde, 0x3e,
  0x33, 0x83, 0xb5, 0x3d, 0x6e, 0xb3, 0x75, 0x3e, 0x3f, 0x91, 0xbf, 0xbd,
  0x84, 0x93, 0xd0, 0x3d, 0x3c, 0x70, 0x93, 0xbe, 0x86, 0x4d, 0xd4, 0x3d,
  0xc4, 0x8a, 0x82, 0x3d, 0xaa, 0x0b, 0xd3, 0x3d, 0x99, 0xa0, 0xda, 0xbb,
  0xdc, 0x86, 0x34, 0xbf, 0x14, 0x40, 0x9c, 0xbb, 0xda, 0x40, 0xb0, 0xbd,
  0x4d, 0xc6, 0x74, 0x3e, 0x85, 0x12, 0x08, 0xbe, 0x87, 0x64, 0x05, 0x3d,
  0x84, 0xe6, 0xe5, 0x3e, 0x5e, 0xdc, 0x2e, 0xbe, 0x6c, 0xac, 0xfc, 0xbd,
  0xfd, 0xb2, 0x41, 0x3c, 0xe1, 0x00, 0xcd, 0x3d, 0x7e, 0xf6, 0x1d, 0xbe,
  0x38, 0xb3, 0xaa, 0x3d, 0x3e, 0x15, 0xb4, 0xbe, 0x74, 0x8a, 0xd1, 0xbc,
  0x8b, 0x41, 0xa1, 0xbb, 0x31, 0xc2, 0x3b, 0xbe, 0x3b, 0x99, 0xcf, 0xbd,
  0xea, 0xd4, 0xb1, 0xbd, 0xef, 0x28, 0x91, 0x3e, 0x65, 0x2a, 0x08, 0xbe,
  0x45, 0x70, 0xb9, 0xbc, 0x37, 0xb8, 0xd5, 0x3e, 0x84, 0xb6, 0x55, 0xbe,
  0x66, 0x5f, 0x14, 0xbd, 0x82, 0xf0, 0x55, 0xbd, 0x44, 0x4f, 0x35, 0x3e,
  0xb9, 0x13, 0x95, 0xbc, 0xaf, 0xe8, 0xcb, 0xbd, 0x57, 0x97, 0x5d, 0xbd,
  0xeb, 0x08, 0x86, 0xbd, 0x71, 0x73, 0xca, 0xbd, 0xca, 0x55, 0x83, 0xbd,
  0x7f, 0x12, 0xad, 0xbd, 0x03, 0xdc, 0xba, 0xbd, 0x08, 0x27, 0x9e, 0x3e,
  0x03, 0xd8, 0xa1, 0x3c, 0x7f, 0x3c, 0x8e, 0x3d, 0xe7, 0x33, 0x09, 0x3f,
  0x5c, 0xab, 0xdd, 0xbd, 0x61, 0xda, 0xb1, 0x3d, 0x1b, 0x74, 0x8c, 0xbc,
  0xdd, 0x0b, 0xd3, 0x3d, 0x11, 0x27, 0xad, 0x3b, 0x5d, 0xbc, 0x19, 0x3e,
  0x64, 0x56, 0x80, 0xbe, 0x48, 0xc2, 0xa5, 0xbd, 0x92, 0x3f, 0x86, 0xbe,
  0x60, 0x45, 0xa8, 0x3d, 0x46, 0xc3, 0xd1, 0xbd, 0xb6, 0xb1, 0xf4, 0xbc,
  0x08, 0x1a, 0x57, 0x3d, 0xec, 0x67, 0x43, 0x3d, 0xf7, 0x2f, 0x59, 0x3c,
  0x78, 0xcb, 0x09, 0x3f, 0x2e, 0xf7, 0xe5, 0xbd, 0xef, 0xf3, 0xb5, 0x3d,
  0xae, 0x0a, 0xa8, 0xbd, 0x2e, 0xe9, 0x5b, 0x3e, 0x80, 0x82, 0x44, 0xbe,
  0xec, 0xcc, 0x17, 0x3c, 0x7f, 0x77, 0x24, 0xbe, 0x12, 0xf2, 0x82, 0xbd,
  0xdd, 0x15, 0xf1, 0xbc, 0x12, 0x19, 0x40, 0xbe, 0x17, 0x19, 0x87, 0xbc,
  0xdd, 0x9e, 0x8e, 0xbc, 0xd0, 0x70, 0x51, 0x3e, 0x24, 0xc8, 0xaf, 0xbd,
  0x37, 0xce, 0x44, 0x3b, 0xd8, 0x95, 0xa9, 0x3e, 0xd9, 0xad, 0x54, 0xbd,
  0x1b, 0x57, 0xa6, 0x3e, 0x47, 0x6e, 0xed, 0xbc, 0x35, 0xc9, 0x33, 0x3e,
  0x0a, 0x7d, 0x9d, 0x3b, 0xb5, 0x47, 0x7b, 0xbb, 0x72, 0x22, 0xba, 0xbe,
  0x74, 0x67, 0x32, 0xbe, 0x57, 0x4f, 0x40, 0xbe, 0xe1, 0x13, 0x94, 0x3d,
  0x40, 0xb0, 0xb4, 0xbc, 0x2f, 0x68, 0xc8, 0xbd, 0xa9, 0x5c, 0x3b, 0x3e,
  0x68, 0xe6, 0x28, 0x3d, 0xd2, 0xc1, 0x11, 0xbd, 0x84, 0x30, 0xf8, 0x3e,
  0xe4, 0xc0, 0x13, 0xbe, 0x6c, 0x2d, 0x8b, 0xbe, 0xc0, 0x5d, 0xc9, 0xbd,
  0xe5, 0x43, 0x13, 0x3d, 0x5f, 0xc0, 0xd5, 0xbd, 0x22, 0xc5, 0xfc, 0xbd,
  0xab, 0xc8, 0x5f, 0xbe, 0x7e, 0x88, 0xc7, 0xbe, 0x77, 0xa6, 0x25, 0x3e,
  0x01, 0x11, 0x45, 0x3e, 0xeb, 0x78, 0x65, 0xbd, 0x30, 0x7c, 0x99, 0xbe,
  0xa0, 0x9b, 0x3a, 0xbd, 0x61, 0x10, 0x20, 0xbe, 0xe1, 0xc0, 0x60, 0xbe,
  0xb6, 0xbf, 0x02, 0xbe, 0x66, 0xea, 0xb3, 0xbd, 0x2b, 0x16, 0xc8, 0xbe,
  0x89, 0xd9, 0x32, 0x3e, 0x80, 0x63, 0x9c, 0xbe, 0x2f, 0x96, 0xf1, 0x3d,
  0xef, 0x9d, 0x96, 0xbd, 0x3a, 0xc9, 0x99, 0xbd, 0x6a, 0x7f, 0xa0, 0xbe,
  0xf7, 0xb8, 0x05, 0xbf, 0x48, 0xd1, 0xda, 0x3d, 0xbc, 0xeb, 0xdb, 0xbd,
  0x54, 0xbc, 0x4d, 0xbe, 0xf5, 0x5f, 0x6d, 0xbd, 0x67, 0x41, 0x94, 0x3c,
  0xf2, 0x91, 0xcd, 0xbd, 0xce, 0x0d, 0x28, 0xbe, 0xaf, 0xdf, 0xa0, 0x3d,
  0xa2, 0x1f, 0x97, 0xbe, 0xf0, 0x6d, 0x27, 0x3e, 0x30, 0xeb, 0xed, 0xbb,
  0xf0, 0xad, 0x9d, 0x3c, 0x21, 0x29, 0x09, 0x3e, 0x7a, 0x5c, 0x2f, 0xbd,
  0xaa, 0xe3, 0x0c, 0x3d, 0xa9, 0x94, 0x7b, 0xbe, 0xbc, 0x9e, 0x62, 0x3d,
  0xca, 0x93, 0x85, 0xbd, 0x6f, 0x5a, 0xaf, 0xbd, 0xf6, 0xc0, 0xc0, 0xbc,
  0xa1, 0x10, 0x4e, 0xbd, 0x96, 0x61, 0xa9, 0x3d, 0x7d, 0x29, 0x2c, 0xbe,
  0x74, 0x03, 0x35, 0x3e, 0x29, 0x47, 0xa5, 0xbe, 0x71, 0x7a, 0x43, 0x3d,
  0xce, 0x98, 0x0e, 0x3e, 0x40, 0xb5, 0x38, 0x3c, 0xb1, 0x95, 0xc8, 0xbc,
  0x85, 0x4e, 0x2b, 0xbe, 0xca, 0x47, 0x84, 0xbe, 0x39, 0x49, 0xbd, 0xbe,
  0x40, 0xb5, 0x65, 0x3c, 0xea, 0x07, 0xd0, 0x3c, 0xfa, 0x8d, 0xf4, 0xbd,
  0x90, 0x5d, 0x5a, 0xbd, 0x9a, 0x42, 0x95, 0xbd, 0x78, 0x89, 0x38, 0x3d,
  0x24, 0x56, 0x44, 0xbe, 0xaf, 0x56, 0x81, 0x3e, 0xf6, 0x36, 0x45, 0xbd,
  0x9a, 0x5c, 0x77, 0x3e, 0x7b, 0xba, 0x68, 0x3d, 0x2d, 0x1c, 0x31, 0x3e,
  0x1d, 0xa0, 0x27, 0xbd, 0xee, 0x8a, 0xb9, 0x3b, 0x58, 0x3a, 0xf7, 0x3c,
  0xd9, 0xf6, 0x90, 0xbe, 0x65, 0x59, 0xa0, 0xbd, 0x97, 0xc8, 0x98, 0xbd,
  0x3c, 0xd3, 0xfc, 0xbd, 0x61, 0x2c, 0x15, 0xbd, 0x2d, 0x50, 0x0f, 0xbb,
  0xe4, 0x55, 0x71, 0xbd, 0x12, 0x92, 0xa5, 0xbe, 0xf6, 0x73, 0xec, 0x3d,
  0x14, 0xe4, 0x80, 0xbe, 0x8d, 0x76, 0x66, 0x3d, 0x2c, 0x97, 0x5b, 0xbe,
  0xa9, 0x40, 0xae, 0x3e, 0x7d, 0x29, 0xca, 0xbc, 0x33, 0x09, 0x42, 0x3d,
  0x59, 0x41, 0xba, 0xbb, 0x97, 0x92, 0x95, 0xbd, 0x69, 0x70, 0xfb, 0x3d,
  0x55, 0x67, 0x51, 0xbd, 0x1e, 0xc8, 0x0a, 0xbe, 0xbd, 0xf9, 0x4e, 0xbd,
  0x98, 0xd4, 0x01, 0xbe, 0xa8, 0xea, 0xd9, 0xbd, 0xbc, 0xe8, 0x9e, 0xbd,
  0xe0, 0x0c, 0x33, 0x3e, 0x83, 0x98, 0x3e, 0xbd, 0xfb, 0x3b, 0xbd, 0xbd,
  0x6b, 0x5f, 0x47, 0x3c, 0x57, 0xf7, 0x1a, 0x3e, 0x22, 0xce, 0x20, 0x3e,
  0x98, 0xb5, 0x93, 0x3b, 0x27, 0x7e, 0x11, 0x3e, 0x70, 0xfc, 0x29, 0xbe,
  0x92, 0x21, 0x65, 0x3d, 0x2d, 0xfd, 0x16, 0x3d, 0xab, 0xa1, 0x62, 0xbe,
  0xda, 0x05, 0x5f, 0xbe, 0xb4, 0x14, 0xa6, 0x3c, 0xd7, 0xd8, 0x6c, 0x3c,
  0x9e, 0x4c, 0xa8, 0xbc, 0xb5, 0x35, 0xa6, 0x3d, 0x4a, 0x59, 0xb8, 0x3b,
  0xea, 0xb4, 0xc2, 0x3d, 0x14, 0x11, 0x54, 0x3c, 0x92, 0x30, 0x4b, 0x3d,
  0xd8, 0x46, 0xb5, 0xbc, 0x41, 0x6b, 0x0c, 0xbd, 0xbe, 0xe6, 0x6f, 0x3d,
  0x62, 0xda, 0x0a, 0x3e, 0x93, 0x16, 0x52, 0xbd, 0x24, 0xa4, 0xf9, 0xbd,
  0xaf, 0x4c, 0x8f, 0xbd, 0xae, 0x86, 0x16, 0xbd, 0xe0, 0x7f, 0x14, 0xbe,
  0x42, 0xb6, 0x3b, 0xbe, 0x70, 0xcd, 0x69, 0x3e, 0x24, 0x7d, 0x0a, 0x3d,
  0x02, 0x94, 0x49, 0x3e, 0x22, 0x8f, 0xc4, 0xbe, 0xad, 0x76, 0x1b, 0x3e,
  0x94, 0x31, 0xa4, 0xbe, 0xba, 0x7f, 0x13, 0x3c, 0xbf, 0x53, 0x42, 0x3e,
  0x6e, 0xd4, 0xdb, 0x3d, 0xc0, 0xdf, 0xda, 0x3f, 0xa5, 0x16, 0x00, 0xbf,
  0xca, 0xa7, 0x10, 0xbd, 0x7e, 0x6a, 0x83, 0xbd, 0x71, 0xb7, 0x13, 0x3e,
  0x44, 0x6d, 0x7e, 0xbe, 0xc0, 0xcb, 0x82, 0xbd, 0xfd, 0x36, 0xca, 0x3d,
  0x94, 0xe1, 0xbd, 0xbd, 0x0d, 0x44, 0x1f, 0x3e, 0x1f, 0xc1, 0x6c, 0xbe,
  0x35, 0x21, 0xa0, 0x3d, 0x21, 0x4c, 0x68, 0x3d, 0x4f, 0xb3, 0x2f, 0x3d,
  0x14, 0xce, 0x1e, 0xbe, 0x48, 0x0f, 0xfb, 0xbd, 0xc0, 0xad, 0xb1, 0x3f,
  0x11, 0xce, 0xf2, 0xbd, 0x9d, 0x7e, 0x55, 0xbd, 0xfd, 0x94, 0xe3, 0x3d,
  0x12, 0x42, 0x91, 0x3e, 0xe8, 0xac, 0x4a, 0x3b, 0x1d, 0x42, 0xef, 0xbd,
  0xa4, 0xfb, 0x4e, 0xbd, 0x28, 0x78, 0xac, 0xbc, 0xd8, 0xf0, 0x60, 0x3e,
  0xf2, 0x22, 0xad, 0xbd, 0xa7, 0x02, 0x13, 0xbd, 0x3c, 0xac, 0x33, 0x3e,
  0xe7, 0x03, 0x29, 0xbe, 0xb1, 0x6b, 0x0f, 0xbe, 0x10, 0x51, 0xae, 0x3d,
  0xe4, 0x23, 0xd1, 0x3f, 0x45, 0x56, 0x3f, 0xbe, 0xc0, 0x1f, 0x39, 0xbe,
  0xfc, 0x2f, 0x62, 0x3e, 0x5a, 0x78, 0x7f, 0x3e, 0x36, 0xb0, 0x9b, 0xbd,
  0x66, 0x2c, 0x8b, 0xbd, 0xd5, 0xa8, 0x41, 0x3e, 0xe8, 0x2e, 0xf7, 0x3d,
  0x84, 0xc9, 0x7b, 0x3e, 0x71, 0xb0, 0x5e, 0xbc, 0x6d, 0x45, 0x46, 0x3e,
  0x4d, 0x8c, 0x3f, 0xbe, 0x5b, 0x8c, 0x1a, 0xbe, 0xf8, 0x41, 0xdd, 0x3c,
  0x98, 0x7c, 0xc5, 0xbd, 0x48, 0xa5, 0x9f, 0x3f, 0x26, 0x12, 0x84, 0xbe,
  0x84, 0x6c, 0x3a, 0xbd, 0xad, 0x29, 0x13, 0xbe, 0x04, 0xe4, 0x5a, 0xbd,
  0x40, 0xf0, 0x6b, 0xbe, 0x2e, 0xb4, 0x30, 0xbe, 0x26, 0x44, 0x2f, 0x3e,
  0xaa, 0x2d, 0xb1, 0x3d, 0xc9, 0x05, 0x25, 0x3e, 0x3e, 0x27, 0x37, 0xbe,
  0x84, 0x8f, 0xc4, 0x3e, 0x57, 0xfc, 0x75, 0x3d, 0x0d, 0xef, 0xce, 0x3d,
  0xe2, 0xba, 0x28, 0xbe, 0xf7, 0x14, 0x3a, 0xbe, 0xed, 0x2c, 0xcc, 0x3f,
  0xf4, 0x99, 0x44, 0xbc, 0x6a, 0xa4, 0xbf, 0xbd, 0x6c, 0xd8, 0x85, 0xbd,
  0xa5, 0xf9, 0xc9, 0x3d, 0xf9, 0xed, 0xa7, 0xbc, 0x2f, 0xf4, 0x1f, 0xbe,
  0x51, 0xae, 0x81, 0x3e, 0x5f, 0x7a, 0x99, 0xbe, 0x38, 0xe4, 0xbc, 0xbe,
  0x9b, 0xd8, 0xb8, 0x3c, 0x05, 0x65, 0xf7, 0x3d, 0xa1, 0x96, 0x15, 0xbc,
  0xff, 0x71, 0xd2, 0x3c, 0xfa, 0x05, 0x00, 0x3d, 0x40, 0xaf, 0xe3, 0xbe,
  0x2c, 0x1c, 0xcb, 0x3f, 0xd6, 0xea, 0x1a, 0x3e, 0x48, 0xe1, 0x8e, 0xbd,
  0x2f, 0x9f, 0x81, 0xbe, 0x6b, 0x5b, 0x1e, 0x3e, 0x17, 0xe0, 0x71, 0xbc,
  0x82, 0x86, 0x9a, 0xbe, 0x7f, 0xa3, 0xad, 0x3d, 0x7e, 0xad, 0x86, 0xbe,
  0x1b, 0xac, 0x7e, 0xbe, 0xa9, 0xfe, 0xf0, 0x3b, 0x62, 0xbc, 0x82, 0xbe,
  0x8b, 0x66, 0x9e, 0x3d, 0x43, 0xb5, 0x89, 0xbe, 0x00, 0x7e, 0x74, 0xbe,
  0x2a, 0x95, 0xb3, 0xbe, 0x38, 0x27, 0xf8, 0x3d, 0xf5, 0x8b, 0xe9, 0x3d,
  0xc1, 0x90, 0x32, 0xbd, 0xff, 0xbe, 0x8d, 0x3b, 0xb5, 0x65, 0x01, 0x3e,
  0x35, 0xb3, 0x05, 0xbe, 0x08, 0x8f, 0x64, 0xbe, 0x33, 0x93, 0xfd, 0x3d,
  0x32, 0xce, 0xcc, 0x3d, 0x82, 0x20, 0x9a, 0x3d, 0xf6, 0x4b, 0x45, 0xbe,
  0xa2, 0x1b, 0xe8, 0xbc, 0xe5, 0x95, 0x68, 0xbd, 0xd5, 0x96, 0x94, 0x3e,
  0x64, 0xe4, 0xc0, 0x3e, 0x0f, 0x46, 0x9c, 0x3e, 0xb2, 0x70, 0xe2, 0xbd,
  0x84, 0x80, 0xa1, 0xbd, 0x06, 0xff, 0xc2, 0xbd, 0xee, 0x7d, 0xee, 0x3c,
  0x9b, 0xbe, 0xdb, 0x3d, 0x3f, 0xd9, 0x05, 0x3e, 0x82, 0x85, 0x21, 0xbd,
  0x1f, 0x01, 0x48, 0x3e, 0xf3, 0x34, 0xb7, 0xbd, 0x92, 0x68, 0x92, 0x3d,
  0x39, 0x8b, 0x72, 0xbd, 0x9b, 0x21, 0x3f, 0xbe, 0x0d, 0x25, 0x29, 0x3d,
  0x0c, 0x47, 0x3b, 0xbd, 0xa6, 0x0a, 0x87, 0x3c, 0x3f, 0xe0, 0x45, 0x3d,
  0x49, 0x8c, 0x92, 0x3e, 0x20, 0xd3, 0x8c, 0x3d, 0xb0, 0x55, 0xe6, 0xbd,
  0xce, 0xdd, 0x68, 0x3d, 0xde, 0x5e, 0x35, 0x3d, 0x5a, 0xb5, 0xf6, 0x3d,
  0x54, 0x83, 0xe6, 0x3c, 0xfe, 0x79, 0xa8, 0x3e, 0xa7, 0x2e, 0x16, 0xbd,
  0x79, 0x5c, 0x92, 0x3d, 0xf4, 0x11, 0x8b, 0xbd, 0x2a, 0x8e, 0x32, 0xbe,
  0xbe, 0x9c, 0xcf, 0x3d, 0x3a, 0xec, 0x4f, 0xbc, 0x41, 0x8d, 0x2c, 0x3d,
  0xae, 0x81, 0x20, 0xbb, 0x4e, 0xda, 0xf7, 0x3d, 0x3f, 0x04, 0xb4, 0x3c,
  0x9f, 0x4b, 0xd3, 0xbd, 0xae, 0xe8, 0x2e, 0x3d, 0xc8, 0xc2, 0xa6, 0x3d,
  0x4d, 0xa9, 0xf2, 0x3d, 0x25, 0xc0, 0x4c, 0x3d, 0xe2, 0x7b, 0x96, 0x3e,
  0xc5, 0xda, 0x1e, 0xbd, 0x95, 0x01, 0x89, 0x3d, 0x7b, 0x67, 0xfa, 0xbc,
  0x84, 0x11, 0x79, 0xbd, 0x10, 0x85, 0x25, 0xbd, 0xcb, 0x9b, 0x16, 0x3d,
  0x9e, 0x35, 0x03, 0xbd, 0xe1, 0x4d, 0xf6, 0xbd, 0xe4, 0x24, 0x78, 0x3e,
  0x72, 0x42, 0xb2, 0x3d, 0x7c, 0x4d, 0x07, 0xbe, 0x63, 0x22, 0xa4, 0x3c,
  0x62, 0x0f, 0x9c, 0xbd, 0x00, 0x52, 0x90, 0x3d, 0x45, 0xd9, 0xd5, 0x3c,
  0x76, 0x08, 0x56, 0x3e, 0x42, 0x72, 0xa5, 0x3c, 0x05, 0xce, 0xc9, 0x3d,
  0x7c, 0xfb, 0xc0, 0xbe, 0x20, 0xae, 0xe4, 0xbd, 0xb1, 0x4c, 0x6a, 0x3d,
  0x16, 0x56, 0xbf, 0xbc, 0xe2, 0x6c, 0x11, 0xbc, 0x6d, 0xd4, 0xac, 0xbd,
  0x96, 0x10, 0x08, 0x3f, 0x9d, 0xd7, 0xc5, 0xbc, 0x91, 0x19, 0xd4, 0xbd,
  0x4b, 0x2d, 0x32, 0xbd, 0xb6, 0xcf, 0x77, 0xbe, 0x7e, 0xca, 0x21, 0x3c,
  0xaf, 0x52, 0x7e, 0xbd, 0x47, 0x9d, 0x8a, 0x3e, 0x02, 0xc4, 0xbd, 0xba,
  0x78, 0x3d, 0xe5, 0x3d, 0xb1, 0xbe, 0xa6, 0xbe, 0x09, 0xef, 0x8f, 0xbd,
  0x7a, 0xec, 0xb6, 0x3d, 0x11, 0x82, 0x96, 0xbd, 0x36, 0xec, 0x3e, 0xbc,
  0x90, 0xa0, 0xec, 0xbc, 0x04, 0x81, 0xbc, 0x3e, 0x73, 0x5c, 0xa5, 0x3d,
  0x3b, 0x0a, 0x34, 0xbd, 0x73, 0xda, 0x18, 0x3d, 0x88, 0xfa, 0x75, 0xbe,
  0x74, 0x84, 0x97, 0x3c, 0x9f, 0x66, 0xf1, 0x3c, 0x8f, 0x55, 0x55, 0xbc,
  0xb5, 0x26, 0x1a, 0xbe, 0x1a, 0x82, 0x4c, 0x3e, 0x1b, 0xdb, 0xd4, 0xbe,
  0xb6, 0xf9, 0x0a, 0xbd, 0xa7, 0xa4, 0xf9, 0xbc, 0x87, 0x1c, 0xfb, 0xbd,
  0x7a, 0x27, 0x31, 0xbe, 0xd0, 0xda, 0x03, 0x3d, 0x19, 0xad, 0x93, 0x3e,
  0x6b, 0x5f, 0x38, 0x3d, 0xd7, 0x8a, 0x88, 0xbd, 0x89, 0x60, 0xd6, 0x3c,
  0x7d, 0xa1, 0xd1, 0x3c, 0x56, 0x67, 0xc9, 0xbc, 0xbc, 0xb9, 0xc7, 0xbd,
  0x58, 0x2c, 0x05, 0x3e, 0x29, 0xa5, 0x77, 0x3d, 0x90, 0x4b, 0xe4, 0x3d,
  0xd1, 0xee, 0x2a, 0xbd, 0x1e, 0xf3, 0x48, 0x3e, 0xee, 0xa4, 0xdd, 0xbb,
  0x93, 0x0d, 0xc0, 0xbd, 0xb4, 0x1e, 0x56, 0xbe, 0x29, 0x88, 0xa3, 0xbd,
  0x3c, 0x3e, 0x9d, 0xbd, 0x5c, 0xce, 0xea, 0x3c, 0xad, 0x6c, 0x0c, 0xbe,
  0x2b, 0xa3, 0xa1, 0xbd, 0x8a, 0x3d, 0x1b, 0x3e, 0x63, 0x59, 0x05, 0x3d,
  0x88, 0xfd, 0x30, 0xbc, 0x05, 0x94, 0x71, 0x3e, 0xa0, 0x19, 0x4e, 0xbd,
  0xfa, 0xef, 0x9c, 0x3d, 0x8f, 0xfa, 0xa2, 0x3d, 0xba, 0xc6, 0x19, 0x3e,
  0xba, 0xc6, 0x20, 0xbe, 0xd9, 0x6c, 0x79, 0x3c, 0x29, 0x5a, 0x83, 0xbe,
  0x2e, 0x64, 0x98, 0xbd, 0x34, 0x58, 0xdc, 0xbc, 0x43, 0xaf, 0x88, 0xbd,
  0x38, 0x81, 0xe2, 0xbd, 0x91, 0x47, 0x8c, 0xbd, 0x17, 0x8c, 0x12, 0x3e,
  0xbf, 0xb0, 0x4d, 0xbd, 0x7b, 0xf1, 0x4c, 0xbc, 0x57, 0xbf, 0xaf, 0x3e,
  0xfa, 0x10, 0xff, 0xbb, 0x27, 0x1b, 0x9e, 0xbd, 0x34, 0x27, 0x9e, 0x3d,
  0x1b, 0xf2, 0xf1, 0x3d, 0x7b, 0x4f, 0xf7, 0x3b, 0x38, 0xc9, 0xb0, 0x3d,
  0x12, 0x31, 0x70, 0xbe, 0x37, 0x6f, 0x88, 0xbd, 0x2a, 0x9b, 0x37, 0xbe,
  0x8d, 0xab, 0xf2, 0x3a, 0xe5, 0xbe, 0xaa, 0xbd, 0x41, 0xf6, 0x7b, 0xbd,
  0xda, 0xff, 0x76, 0x3e, 0x3e, 0xb9, 0x0e, 0xbd, 0xb2, 0x58, 0x89, 0x3d,
  0xd6, 0x51, 0x73, 0x3e, 0xbf, 0x83, 0x0f, 0xbd, 0x34, 0x71, 0xb9, 0xbd,
  0x09, 0xd1, 0xa7, 0x3c, 0x40, 0xf2, 0xa3, 0x3d, 0x81, 0xbf, 0xf2, 0x3c,
  0x84, 0xef, 0x1a, 0xbd, 0x3d, 0x62, 0xb1, 0xbe, 0xb5, 0x7f, 0x17, 0xbd,
  0x29, 0x24, 0x23, 0x3d, 0x37, 0x7b, 0x2e, 0xbd, 0xf0, 0xf8, 0x0f, 0xbe,
  0x0f, 0x21, 0xa7, 0xbd, 0x73, 0x0f, 0x50, 0x3c, 0x0d, 0x8a, 0xa5, 0xbd,
  0xbc, 0x7d, 0xc4, 0x3c, 0x4c, 0xed, 0xdd, 0x3e, 0x8d, 0x05, 0x19, 0xbd,
  0x26, 0xa5, 0x53, 0xba, 0x89, 0xb9, 0xab, 0x3d, 0x83, 0xc1, 0xf9, 0x3d,
  0x6c, 0xd4, 0xc6, 0x3c, 0x82, 0x31, 0xda, 0xbc, 0x02, 0x42, 0xfb, 0xbd,
  0x79, 0x74, 0xfb, 0x3c, 0xa2, 0x35, 0x10, 0x3d, 0xbf, 0x1e, 0x54, 0xbd,
  0xc9, 0xae, 0x21, 0xbe, 0x87, 0x5e, 0x41, 0xbd, 0x41, 0xc0, 0x3e, 0x3e,
  0xbb, 0x8a, 0xf4, 0xbc, 0x97, 0xd6, 0xf7, 0xbd, 0xc8, 0xea, 0xcd, 0x3e,
  0x7e, 0xde, 0x86, 0x3a, 0xbd, 0x64, 0xb5, 0x3d, 0xac, 0xe5, 0xba, 0x3c,
  0x19, 0xf6, 0x54, 0x3e, 0x0f, 0xf8, 0xe7, 0x3d, 0xdc, 0xdc, 0x9a, 0x3d,
  0xea, 0x30, 0x18, 0xbe, 0x06, 0x79, 0x87, 0xbd, 0x1a, 0xe7, 0x93, 0xbe,
  0xb9, 0x3a, 0xad, 0xbd, 0x45, 0x83, 0xaf, 0xbd, 0x39, 0xc6, 0xea, 0xbd,
  0x35, 0xa7, 0x2c, 0x3e, 0xb7, 0x69, 0xa6, 0x3c, 0x6d, 0x65, 0xdd, 0x3c,
  0x2a, 0x1b, 0x92, 0x3e, 0x81, 0xa4, 0x4f, 0x3d, 0xc8, 0x09, 0x6b, 0xbc,
  0xe1, 0x9f, 0xfc, 0x3d, 0x8f, 0x44, 0x08, 0x3e, 0x89, 0x68, 0x8d, 0x3d,
  0xfa, 0x15, 0xd2, 0x3d, 0x11, 0xcf, 0x23, 0xbe, 0x35, 0xa3, 0xbc, 0xbd,
  0x9f, 0xcb, 0xb9, 0xbd, 0x84, 0x52, 0x87, 0x3d, 0x2a, 0x01, 0xd2, 0xbc,
  0x98, 0x45, 0x8c, 0xbe, 0x51, 0x36, 0x7e, 0xbe, 0x1b, 0xf4, 0xb4, 0x3c,
  0x86, 0x66, 0x0f, 0xbb, 0xe3, 0x0f, 0xbe, 0xbd, 0xf5, 0x48, 0xdc, 0xbe,
  0xd2, 0xb5, 0xc9, 0xbd, 0x99, 0x78, 0x49, 0xbd, 0x8a, 0x4a, 0x16, 0xbf,
  0x6a, 0x8a, 0xca, 0xbd, 0xb2, 0x6f, 0x5d, 0xbc, 0xf6, 0x1a, 0xe7, 0x3c,
  0x73, 0x97, 0x6f, 0xbe, 0x33, 0xf2, 0xa6, 0x3d, 0xbb, 0xbc, 0x11, 0xbd,
  0x97, 0x44, 0x4c, 0xbe, 0x0a, 0xc2, 0x25, 0x3d, 0x43, 0xac, 0xb3, 0xbd,
  0x98, 0x99, 0x6f, 0x3c, 0x88, 0x0b, 0x0c, 0xbe, 0xaf, 0x34, 0x8b, 0xbe,
  0x2a, 0x49, 0x16, 0xbf, 0xd9, 0xb1, 0x99, 0xbe, 0x77, 0xd9, 0x37, 0x3a,
  0x13, 0xe7, 0xb5, 0xbe, 0xda, 0x27, 0x38, 0xbe, 0x2d, 0x0b, 0x4f, 0xbf,
  0xb9, 0xbc, 0x20, 0xbe, 0x41, 0xc1, 0x48, 0xbe, 0x22, 0x9a, 0x27, 0x3b,
  0x33, 0xb9, 0x15, 0xbd, 0x2e, 0x4e, 0x26, 0xbd, 0xb2, 0x90, 0x89, 0xbd,
  0x00, 0xb7, 0x83, 0xbd, 0x7a, 0x08, 0x5f, 0xbc, 0xf2, 0x21, 0xc1, 0xbe,
  0x82, 0x0e, 0x06, 0xbe, 0x77, 0x52, 0x1e, 0xbf, 0xc4, 0x1e, 0x94, 0xbb,
  0x8e, 0xf3, 0x38, 0x3e, 0x4a, 0xdd, 0x5c, 0xbe, 0xf8, 0xc1, 0x2a, 0xbd,
  0xb3, 0xa0, 0x2f, 0xbf, 0xaf, 0x33, 0x49, 0xbe, 0x52, 0xf1, 0x0d, 0xbf,
  0x14, 0x23, 0xab, 0xbe, 0x1b, 0x37, 0xe8, 0x3c, 0x20, 0x66, 0xf6, 0x3c,
  0x3d, 0x84, 0x91, 0xbe, 0x67, 0xe4, 0x9f, 0x3c, 0x00, 0xd9, 0x58, 0x3d,
  0x2b, 0xac, 0xa0, 0xbe, 0x95, 0x93, 0x12, 0x3e, 0x27, 0x46, 0xdd, 0xbe,
  0x9e, 0x54, 0xb2, 0xbe, 0x21, 0xc3, 0x9e, 0x3e, 0xe7, 0x0a, 0x6e, 0xbe,
  0x06, 0x31, 0xe3, 0x3d, 0xee, 0x19, 0xca, 0xbe, 0x68, 0x45, 0x09, 0xbe,
  0x60, 0x15, 0x09, 0xbd, 0x0c, 0x88, 0xf3, 0xbd, 0x59, 0x7e, 0x91, 0x3d,
  0x67, 0x87, 0x47, 0xbd, 0x22, 0xb3, 0xba, 0xbe, 0x0a, 0x1e, 0x4d, 0xbd,
  0xcb, 0x5c, 0x81, 0xbd, 0x5b, 0x8e, 0x7e, 0xbd, 0x3f, 0x68, 0x59, 0xbe,
  0xd3, 0x57, 0x24, 0x3d, 0x8c, 0x1a, 0x07, 0xbf, 0xf0, 0x07, 0x54, 0x3e,
  0x81, 0x52, 0x01, 0xbe, 0xb5, 0x36, 0x99, 0x3e, 0x19, 0x00, 0x83, 0x3e,
  0x4a, 0x9d, 0x59, 0xbe, 0xb0, 0x1d, 0x2e, 0xbe, 0x0d, 0x33, 0xce, 0xbd,
  0x1b, 0x03, 0x12, 0x3e, 0xda, 0xbb, 0x0a, 0xbe, 0x5e, 0x74, 0x8d, 0xbe,
  0x52, 0x0a, 0xa7, 0xbb, 0x33, 0x76, 0x37, 0xbe, 0x87, 0xb8, 0x01, 0xbe,
  0x5c, 0xb2, 0xb8, 0xbd, 0x7c, 0x26, 0x38, 0x3e, 0xb0, 0x8a, 0x60, 0xbe,
  0x20, 0x11, 0x00, 0x3e, 0x59, 0x30, 0xa2, 0x3c, 0xaf, 0x3a, 0x7f, 0x3e,
  0x8a, 0x9f, 0x8c, 0x3e, 0xac, 0x1c, 0x10, 0xbe, 0x47, 0x84, 0xb3, 0x3b,
  0xcd, 0x38, 0x9b, 0xbe, 0xd8, 0x93, 0xd5, 0x3d, 0xdd, 0xf7, 0x80, 0xbd,
  0xc1, 0x0e, 0x95, 0xbe, 0x27, 0xf8, 0x3b, 0x3e, 0x35, 0x99, 0xca, 0xbd,
  0xe7, 0x89, 0xaf, 0x3d, 0x3f, 0x04, 0xba, 0xbc, 0xd9, 0xdb, 0x24, 0x3e,
  0x82, 0x6f, 0x28, 0xbe, 0x0a, 0xf8, 0xfb, 0x3d, 0x5a, 0xf0, 0x81, 0x3d,
  0xd4, 0xed, 0xd8, 0x3d, 0x29, 0xc5, 0xb6, 0x3d, 0xc1, 0x69, 0x5a, 0xbe,
  0xa2, 0xa8, 0xc3, 0x3b, 0xcf, 0xce, 0xa3, 0xbe, 0xf5, 0x26, 0x14, 0xbd,
  0x6c, 0xc1, 0x94, 0xbe, 0x8e, 0xdf, 0xa8, 0xbd, 0x93, 0x71, 0x06, 0xbe,
  0x52, 0x7d, 0xda, 0xbe, 0xf7, 0xd0, 0xca, 0xbe, 0x7e, 0x53, 0xb9, 0xbd,
  0x2a, 0xc7, 0x61, 0xbb, 0x35, 0xfb, 0xa6, 0x3d, 0x37, 0xf2, 0x89, 0xbe,
  0xf8, 0xb6, 0x11, 0x3d, 0x77, 0x12, 0x32, 0xbe, 0xdb, 0xb5, 0x88, 0x3b,
  0x99, 0xc1, 0x20, 0x3d, 0xb6, 0x33, 0xe1, 0xbd, 0x20, 0xb1, 0x0e, 0x40,
  0xff, 0xf3, 0xd2, 0xbe, 0x58, 0x2a, 0xa1, 0xbe, 0xca, 0x40, 0x9a, 0xbd,
  0x5e, 0xd1, 0xdd, 0x3e, 0x7f, 0xf8, 0x90, 0x3d, 0xeb, 0xd8, 0x86, 0xbe,
  0xc3, 0x3a, 0x08, 0xbd, 0x8d, 0xae, 0x36, 0xbe, 0x8b, 0xdc, 0x70, 0x3e,
  0x2e, 0x84, 0xb5, 0xbd, 0x67, 0xe4, 0xd9, 0x3d, 0x44, 0xd9, 0xdf, 0x3d,
  0xfe, 0x17, 0xb0, 0xbe, 0xdd, 0x20, 0x2f, 0xbd, 0xff, 0xc0, 0x83, 0xbd,
  0xb9, 0x4c, 0xbb, 0x3f, 0x82, 0xf8, 0x7b, 0xbe, 0xc2, 0x6b, 0xa1, 0x3c,
  0xa8, 0x9b, 0x42, 0x3d, 0x03, 0x7c, 0xbf, 0x3d, 0x2d, 0x9d, 0xa4, 0xbb,
  0xac, 0xd6, 0x5d, 0xbe, 0xe1, 0x3c, 0x8a, 0xbd, 0x5a, 0x90, 0x40, 0xbe,
  0xdc, 0x09, 0x8f, 0x3e, 0x82, 0xb6, 0x08, 0xbd, 0x35, 0xd8, 0xdf, 0x3d,
  0x9b, 0x25, 0x0b, 0x3d, 0xf8, 0xa2, 0x63, 0xbe, 0xe3, 0xcf, 0xbd, 0xbd,
  0x15, 0x11, 0x3e, 0x3e, 0x3a, 0x37, 0xf2, 0x3f, 0x41, 0x69, 0x93, 0xbe,
  0xa1, 0x30, 0xad, 0xbe, 0x3f, 0x2f, 0x6e, 0xbe, 0x16, 0xf4, 0x67, 0xbe,
  0x01, 0xcb, 0xd3, 0xbd, 0x47, 0xf0, 0x2b, 0xbe, 0xe5, 0x22, 0xcf, 0x3d,
  0xd7, 0x6e, 0x4d, 0xbe, 0x0a, 0xfc, 0xb4, 0x3e, 0x66, 0xdf, 0x55, 0xbe,
  0x1c, 0x6c, 0x5b, 0x3e, 0x0e, 0x1f, 0x26, 0xbe, 0xda, 0x10, 0xa8, 0x3e,
  0x98, 0x66, 0x8f, 0xbd, 0xe2, 0x9d, 0x6e, 0xbd, 0x74, 0xc9, 0x9d, 0x3f,
  0x8e, 0x61, 0x51, 0xbe, 0xfe, 0x80, 0xef, 0xba, 0xac, 0x69, 0x2d, 0xbe,
  0x5f, 0x77, 0x88, 0xbe, 0xa8, 0xa2, 0x8c, 0xbe, 0xd0, 0x0a, 0xad, 0xbe,
  0x96, 0x8e, 0xbf, 0x3e, 0xa8, 0xbd, 0xeb, 0xbd, 0x69, 0xa2, 0xc0, 0xbd,
  0xdb, 0x14, 0x85, 0x3d, 0x94, 0xbc, 0x82, 0xbd, 0x91, 0xb4, 0x86, 0x3e,
  0xf5, 0x38, 0xbd, 0x3d, 0x61, 0xc7, 0xe7, 0xbd, 0x8b, 0xaa, 0x29, 0xbe,
  0x87, 0xaa, 0xdf, 0x3f, 0xc7, 0xe1, 0x78, 0xbe, 0x4e, 0x4b, 0x91, 0x3c,
  0xad, 0x33, 0x15, 0xbe, 0x75, 0xba, 0x50, 0x3e, 0xc5, 0x7f, 0x84, 0xbd,
  0x0b, 0x69, 0x91, 0xbe, 0x1b, 0x00, 0x7a, 0xbd, 0x55, 0xfa, 0x36, 0xbe,
  0x71, 0x3f, 0x17, 0xbc, 0x29, 0xce, 0x34, 0x3d, 0xeb, 0x9a, 0x7a, 0xbe,
  0xfa, 0x7a, 0xd0, 0x3d, 0x2b, 0x3c, 0xa1, 0x3d, 0xc3, 0x61, 0x33, 0xbe,
  0x56, 0x46, 0x64, 0xbd, 0x45, 0xef, 0xcf, 0x3f, 0x1c, 0x31, 0x21, 0xbd,
  0xf8, 0x95, 0x7b, 0xbe, 0xf3, 0x64, 0x98, 0xbe, 0x81, 0x76, 0x99, 0x3d,
  0xd7, 0x27, 0x98, 0x3c, 0xe6, 0xfd, 0x4c, 0xbe, 0x01, 0x51, 0x36, 0xbe,
  0x5f, 0xb0, 0x30, 0xbc, 0xff, 0x18, 0x54, 0xbd, 0x9b, 0x14, 0x7b, 0xbd,
  0xbc, 0x79, 0xc2, 0xbd, 0x15, 0x4d, 0x10, 0xbe, 0xe3, 0x89, 0x0f, 0xbd,
  0xad, 0x64, 0xc6, 0xbd, 0xc5, 0x59, 0xcc, 0xbe, 0x8f, 0x4c, 0x86, 0x3d,
  0xe3, 0x27, 0x41, 0xbe, 0x61, 0xaa, 0x88, 0xbc, 0x15, 0xa2, 0x76, 0xbe,
  0xb2, 0x12, 0x66, 0x3d, 0xec, 0xe6, 0x68, 0x3c, 0xe1, 0x16, 0xee, 0xbd,
  0xcf, 0x71, 0x45, 0xbe, 0x47, 0xd1, 0xf1, 0xbd, 0x69, 0xc7, 0x19, 0xbe,
  0xdc, 0x02, 0x87, 0xbe, 0x26, 0x96, 0x04, 0x3d, 0xf2, 0x7b, 0x97, 0xbe,
  0x45, 0x72, 0xe1, 0xbc, 0xfd, 0x8e, 0xf6, 0xbc, 0x9b, 0x7f, 0xee, 0xbb,
  0x7a, 0x09, 0x44, 0x3d, 0x27, 0x06, 0xed, 0xbd, 0x4b, 0x58, 0x96, 0xbd,
  0x71, 0xc3, 0x7d, 0x3d, 0xdc, 0x05, 0x77, 0xbd, 0xbe, 0x9b, 0x87, 0xbd,
  0xbc, 0x2f, 0x86, 0xbe, 0x70, 0xd9, 0xb3, 0x3d, 0x6d, 0x9e, 0xb3, 0x3c,
  0x8b, 0xda, 0x7a, 0x3d, 0x09, 0x56, 0xe3, 0xbd, 0x53, 0xf6, 0xfe, 0xbd,
  0xd0, 0x5b, 0x32, 0xbe, 0x7c, 0xf4, 0x93, 0xbe, 0x33, 0xf9, 0x02, 0xbe,
  0x38, 0x1b, 0x85, 0xbd, 0xcf, 0xef, 0x53, 0xbe, 0x12, 0x2c, 0x50, 0xbe,
  0xa8, 0x41, 0x2e, 0xbe, 0x4c, 0x4e, 0x29, 0xbe, 0x7d, 0x23, 0x56, 0xbe,
  0x71, 0x1c, 0xab, 0xbd, 0xaa, 0x49, 0x1c, 0xbe, 0xfe, 0x48, 0x89, 0xbe,
  0x26, 0xc2, 0x1a, 0xbe, 0xd9, 0xa3, 0x18, 0xbe, 0xea, 0x11, 0xbb, 0xbd,
  0x77, 0x9f, 0xfb, 0xbb, 0xa3, 0x08, 0xd6, 0x3c, 0xa6, 0x7a, 0x59, 0x3d,
  0x7f, 0x64, 0x0c, 0xbe, 0xf8, 0x36, 0x81, 0xbe, 0xcc, 0x33, 0x2a, 0x3e,
  0x05, 0xb2, 0x0c, 0x3d, 0xca, 0x34, 0x89, 0xbd, 0x32, 0x67, 0x2f, 0x3c,
  0xa4, 0xae, 0xae, 0xbc, 0x6a, 0xd2, 0x2b, 0xbd, 0x15, 0x7c, 0xc0, 0xbe,
  0xeb, 0xa8, 0x3f, 0x3d, 0x21, 0xa1, 0x8b, 0xbd, 0x5d, 0x81, 0xd9, 0x3c,
  0x88, 0x7b, 0xa3, 0x3d, 0x09, 0xc1, 0x08, 0x3d, 0xfe, 0xce, 0xab, 0xbd,
  0x5a, 0xf0, 0x56, 0xbe, 0xd1, 0x2f, 0x42, 0xbe, 0xb1, 0x28, 0x5f, 0xbe,
  0x14, 0xd0, 0x82, 0xbc, 0xc1, 0x80, 0x81, 0xbe, 0x72, 0x04, 0x19, 0xbe,
  0xdc, 0x7e, 0x60, 0xbe, 0x35, 0x50, 0xe9, 0xbc, 0x3d, 0x32, 0x77, 0xbe,
  0xe3, 0x7b, 0x57, 0xbe, 0x3d, 0xdb, 0x28, 0xbe, 0xdd, 0x97, 0xbf, 0xbd,
  0x69, 0x6d, 0x10, 0x3d, 0x59, 0xb6, 0xb6, 0xbd, 0xd5, 0xe6, 0x3d, 0xbe,
  0xe4, 0x9c, 0x56, 0xbe, 0xa9, 0xb9, 0x48, 0xbc, 0x06, 0x4c, 0x3d, 0xbe,
  0xda, 0xbd, 0xdb, 0xbc, 0xfe, 0x81, 0x1f, 0x3d, 0x63, 0x45, 0x28, 0xbe,
  0x09, 0xa2, 0x0e, 0xbe, 0x2d, 0xb9, 0xd9, 0x3d, 0x6e, 0x2e, 0x58, 0xbe,
  0x67, 0xb8, 0xf2, 0xbd, 0x8c, 0xdf, 0x98, 0xbe, 0x02, 0x7b, 0x06, 0x3d,
  0xe3, 0xfc, 0x0c, 0xbe, 0xd9, 0xd4, 0x21, 0xbe, 0x1d, 0x50, 0x34, 0xbe,
  0xd6, 0xe2, 0x12, 0xbe, 0x51, 0x0d, 0xef, 0x3c, 0x4e, 0xcc, 0xd8, 0x3d,
  0x7e, 0xf6, 0x05, 0x3e, 0x96, 0x03, 0x59, 0xbe, 0xfe, 0xa5, 0x82, 0xbe,
  0x8e, 0x00, 0x11, 0xbe, 0xc5, 0x09, 0x08, 0xbe, 0x85, 0x9a, 0x7a, 0xbd,
  0x87, 0xb7, 0x9f, 0x3d, 0x7a, 0x8b, 0x47, 0xbe, 0x62, 0x40, 0x2f, 0xbe,
  0x1b, 0x65, 0xc4, 0x3c, 0x53, 0x7c, 0x30, 0xbe, 0x38, 0x34, 0xff, 0xbd,
  0x70, 0x78, 0x26, 0xbe, 0x3c, 0xbf, 0x24, 0xbe, 0x76, 0xff, 0xb5, 0x3c,
  0x11, 0x3b, 0x4b, 0xbe, 0x83, 0x78, 0xd8, 0x3b, 0xc1, 0x69, 0x90, 0xbd,
  0x79, 0xde, 0x04, 0xbe, 0x58, 0xae, 0xcf, 0xbd, 0x34, 0xe1, 0x0a, 0xbe,
  0x1f, 0x90, 0xb2, 0xbc, 0x82, 0x37, 0xbf, 0xbd, 0x53, 0x4b, 0x00, 0xbe,
  0x47, 0x70, 0x1c, 0xbf, 0xf9, 0x4c, 0xff, 0xbd, 0xdf, 0x0b, 0xcb, 0xbd,
  0x93, 0x4e, 0x05, 0xbe, 0x2c, 0x5f, 0x81, 0xbe, 0xb2, 0x47, 0x87, 0xbe,
  0x12, 0x50, 0xdb, 0x3d, 0xa7, 0x96, 0x02, 0x3e, 0xb2, 0x41, 0xc9, 0xbc,
  0x50, 0x20, 0xd0, 0x3c, 0x47, 0x15, 0x8d, 0xbe, 0xaf, 0xe0, 0x8c, 0x3b,
  0x61, 0x77, 0x1f, 0xbd, 0xc4, 0x05, 0xdb, 0xbd, 0x8f, 0xbe, 0xae, 0xbd,
  0x8a, 0xf0, 0x84, 0x3e, 0x69, 0x64, 0x8f, 0xbe, 0x94, 0xdf, 0x8f, 0x3d,
  0x15, 0x15, 0x19, 0xbe, 0xfb, 0x01, 0x8d, 0x3c, 0x7a, 0x80, 0x97, 0x3d,
  0x30, 0x85, 0x35, 0xbe, 0xa2, 0x44, 0x87, 0x3d, 0x63, 0x52, 0x74, 0xbe,
  0xc5, 0x92, 0x1e, 0xbe, 0x06, 0x51, 0x49, 0x3d, 0xfa, 0xb2, 0xd2, 0xbd,
  0xc2, 0x62, 0xbb, 0x3d, 0x72, 0x16, 0x43, 0x3d, 0xbf, 0x5e, 0x91, 0xbe,
  0x89, 0x66, 0x36, 0x3e, 0x68, 0x9c, 0x6e, 0xbc, 0x89, 0xcc, 0x82, 0xbe,
  0xdf, 0x18, 0x0e, 0x3e, 0x38, 0xb3, 0x7f, 0xbe, 0xe8, 0x25, 0xe0, 0x3b,
  0xb4, 0xa3, 0x21, 0xbd, 0xa2, 0x58, 0x43, 0xbd, 0xc7, 0x46, 0xcb, 0x3d,
  0xf8, 0x7f, 0x15, 0xbe, 0xf6, 0x68, 0x60, 0x3b, 0x26, 0x74, 0x7f, 0xbe,
  0x8f, 0x11, 0xb8, 0xbd, 0x80, 0xaf, 0x8f, 0xbc, 0xb6, 0xd9, 0xcc, 0xbd,
  0xe0, 0x91, 0xb2, 0x3d, 0x18, 0x28, 0x83, 0xbb, 0x62, 0x97, 0x89, 0xbc,
  0x02, 0xdb, 0xeb, 0xbd, 0xb8, 0xe2, 0xa0, 0x3e, 0x87, 0xf5, 0x90, 0x3d,
  0xb3, 0x93, 0x17, 0xbe, 0x36, 0x87, 0x4e, 0x3d, 0xbc, 0x5e, 0x04, 0xbe,
  0xf6, 0xc5, 0x84, 0x3e, 0x30, 0x30, 0x64, 0xbe, 0x1d, 0x40, 0xa4, 0x3d,
  0xa0, 0xe6, 0x7e, 0xbd, 0x31, 0x2e, 0xbc, 0xbe, 0x72, 0xd3, 0x89, 0x3c,
  0x04, 0xf0, 0xb4, 0xbd, 0xef, 0x2a, 0xe6, 0xbd, 0x26, 0x00, 0x45, 0xbd,
  0x04, 0xa0, 0x40, 0x3d, 0x53, 0x5b, 0x52, 0x3c, 0x1c, 0xf3, 0x3c, 0x3e,
  0xed, 0x8a, 0xe2, 0xbd, 0xa7, 0xea, 0x43, 0xbe, 0xeb, 0x2e, 0xd4, 0xbd,
  0x89, 0x87, 0x42, 0xbe, 0x25, 0xa1, 0x5e, 0x3e, 0x51, 0xf1, 0x4d, 0xbe,
  0x80, 0xd0, 0x73, 0xbd, 0x28, 0xd1, 0xa2, 0xbe, 0xc5, 0x8e, 0xa3, 0xbe,
  0x80, 0xfe, 0xf2, 0xbc, 0x7b, 0x1f, 0x31, 0xbc, 0xdc, 0x39, 0x7f, 0xbd,
  0x7a, 0x55, 0xce, 0xbd, 0xe1, 0x70, 0x9a, 0x3d, 0xe1, 0xa8, 0xa7, 0xbe,
  0x0e, 0x4f, 0xf9, 0x3d, 0x41, 0x09, 0x85, 0xbe, 0x76, 0x01, 0xf7, 0x3c,
  0x6b, 0x38, 0x3c, 0x3d, 0x14, 0xfb, 0xb1, 0xbd, 0x70, 0x3d, 0x00, 0x3e,
  0x0e, 0x0d, 0x39, 0xbe, 0x9f, 0x00, 0xbd, 0x3d, 0x95, 0x83, 0x57, 0xbe,
  0xf7, 0x44, 0x6a, 0xbe, 0x3d, 0xd8, 0xd3, 0x3d, 0xab, 0xcb, 0x98, 0x3b,
  0x8c, 0x3e, 0xac, 0xbe, 0x38, 0x49, 0x4f, 0x3d, 0x3e, 0x2b, 0x29, 0x3b,
  0x0e, 0xcc, 0x2f, 0xbe, 0xf5, 0x02, 0x12, 0xbc, 0xac, 0xc3, 0x24, 0xbe,
  0x79, 0x7c, 0x65, 0xbe, 0x77, 0x1b, 0x82, 0x3d, 0x10, 0x5e, 0x75, 0xbe,
  0xe4, 0xf3, 0xf4, 0x3c, 0x7e, 0xce, 0x67, 0xbe, 0xf9, 0x1b, 0xc8, 0xbd,
  0xae, 0x19, 0xab, 0xbe, 0x3d, 0xbf, 0x65, 0x3d, 0x69, 0xe3, 0x94, 0xbd,
  0x76, 0x22, 0x22, 0xbe, 0xd9, 0xe1, 0x5a, 0xbe, 0xc1, 0x32, 0xfc, 0xbc,
  0x84, 0x3f, 0xce, 0xbd, 0x13, 0x7b, 0x12, 0xbe, 0xfc, 0x00, 0x10, 0xbe,
  0x48, 0xe6, 0x61, 0x3c, 0x23, 0x2b, 0x78, 0xbe, 0x29, 0x11, 0x38, 0x3e,
  0x0b, 0x8d, 0xc7, 0xbd, 0x94, 0xbd, 0x9f, 0x3d, 0x11, 0xf0, 0xc9, 0xbe,
  0x9a, 0xdb, 0xc9, 0xbe, 0xeb, 0x0c, 0x40, 0xbf, 0x95, 0xc0, 0xe4, 0x3d,
  0x4f, 0x11, 0x26, 0x3e, 0x3d, 0x17, 0x5d, 0xbc, 0x9c, 0x6c, 0x5d, 0xbd,
  0x52, 0xe5, 0x7b, 0xbc, 0x21, 0x75, 0x1e, 0xbd, 0xba, 0x92, 0xbf, 0xbd,
  0x0d, 0x20, 0x01, 0xbe, 0x65, 0x8a, 0x29, 0x3e, 0x0a, 0xf7, 0x85, 0xbe,
  0xd4, 0xaa, 0x53, 0x3e, 0x3f, 0xb1, 0x11, 0x3e, 0x58, 0xa9, 0x8f, 0x3b,
  0xa5, 0x5e, 0x0b, 0x3e, 0x35, 0x10, 0x02, 0xbe, 0x7a, 0xaf, 0x64, 0xbd,
  0x1b, 0x87, 0x03, 0xbe, 0x9e, 0x7a, 0x36, 0x3d, 0xf2, 0x4f, 0x3d, 0xbd,
  0x7c, 0x6c, 0x9c, 0xbe, 0x05, 0x32, 0xfc, 0xbd, 0x9e, 0x6b, 0x4a, 0xbd,
  0x9a, 0xc2, 0xac, 0x3d, 0x71, 0xe9, 0x87, 0xbe, 0x36, 0x76, 0x0a, 0x3e,
  0xad, 0x95, 0x90, 0xbe, 0x03, 0x80, 0xf8, 0x3c, 0x72, 0x63, 0xda, 0x3d,
  0x4f, 0x6b, 0x6b, 0xbc, 0x26, 0x4c, 0x73, 0x3d, 0xd4, 0xbb, 0x37, 0xbe,
  0x15, 0x91, 0xc9, 0xbd, 0x56, 0xad, 0x23, 0xbe, 0xa6, 0x6f, 0x3c, 0xbd,
  0x34, 0xb0, 0x22, 0x3c, 0x72, 0x51, 0xb7, 0xbd, 0x8e, 0x61, 0xc0, 0x3b,
  0x4e, 0xec, 0x8a, 0x3d, 0xce, 0x7f, 0x20, 0x3e, 0xbc, 0xc3, 0x97, 0xbe,
  0xe9, 0xe9, 0x1a, 0x3e, 0x8e, 0xdb, 0xb5, 0xbd, 0xc7, 0x20, 0x62, 0x3e,
  0x16, 0x8b, 0x60, 0x3e, 0x7f, 0x68, 0x5f, 0x3d, 0xd8, 0x85, 0xa0, 0x3c,
  0xa2, 0x0c, 0x55, 0xbd, 0x1d, 0xd8, 0xf8, 0x3a, 0xa9, 0x9d, 0xd6, 0xbe,
  0xd6, 0x06, 0x57, 0xbe, 0x98, 0x2d, 0xd8, 0xbd, 0xf8, 0x7c, 0x2d, 0xbe,
  0x2b, 0x38, 0x1d, 0xbe, 0x54, 0x9d, 0x11, 0xbe, 0xcd, 0xb9, 0x5b, 0xbc,
  0x7e, 0x67, 0xdd, 0xbe, 0xef, 0x1c, 0xc6, 0x3c, 0x38, 0xdd, 0xf5, 0xbd,
  0x48, 0x2f, 0x13, 0x3e, 0x3b, 0x04, 0x0a, 0x3e, 0x8a, 0x39, 0xba, 0x3e,
  0x35, 0x5f, 0x89, 0x3d, 0xc8, 0x5d, 0x00, 0xbc, 0x99, 0x71, 0xaa, 0x3d,
  0x47, 0x37, 0x0e, 0x3c, 0xb1, 0xdc, 0xc8, 0xbd, 0x9e, 0xff, 0x86, 0xbe,
  0xba, 0xdb, 0x87, 0xbd, 0x69, 0x98, 0xf9, 0xbc, 0x9b, 0x12, 0xad, 0xbe,
  0xa8, 0xf3, 0xcb, 0xbd, 0xc8, 0x36, 0x2a, 0xbe, 0xbd, 0x69, 0x94, 0x3d,
  0x2a, 0x5f, 0xf6, 0xbd, 0x18, 0xa6, 0x04, 0x3e, 0xd2, 0x22, 0x26, 0x3e,
  0xea, 0x39, 0x2d, 0x3e, 0xe2, 0x90, 0x96, 0x3d, 0x7e, 0x42, 0xa3, 0x3c,
  0xd6, 0xfe, 0xd8, 0x3d, 0x72, 0xb8, 0x67, 0xbe, 0xa7, 0x4b, 0x83, 0xbe,
  0x12, 0x3e, 0x42, 0xbe, 0x0c, 0x35, 0x52, 0x3d, 0x6c, 0x15, 0x0e, 0xbd,
  0x6b, 0x90, 0x4a, 0xbd, 0xa5, 0x80, 0x35, 0xbd, 0xc7, 0x3f, 0x2f, 0xbd,
  0x9b, 0xbb, 0xdc, 0x3d, 0xf3, 0x79, 0x0c, 0x3c, 0x89, 0xe8, 0x86, 0xbd,
  0xb4, 0xc6, 0x61, 0x3d, 0x44, 0x69, 0x8e, 0xbe, 0xab, 0x0b, 0x59, 0x3d,
  0x07, 0x46, 0x0f, 0x3d, 0x3a, 0x8f, 0x31, 0x3e, 0x45, 0x42, 0x83, 0xbe,
  0xd0, 0x39, 0xb4, 0xbe, 0x62, 0xfd, 0xff, 0xff, 0x10, 0x00, 0x00, 0x00,
  0x07, 0x00, 0x00, 0x00, 0x14, 0x00, 0x00, 0x00, 0x2c, 0x00, 0x00, 0x00,
  0x02, 0x00, 0x00, 0x00, 0x10, 0x00, 0x00, 0x00, 0x70, 0x00, 0x00, 0x00,
  0x17, 0x00, 0x00, 0x00, 0x73, 0x65, 0x71, 0x75, 0x65, 0x6e, 0x74, 0x69,
  0x61, 0x6c, 0x2f, 0x64, 0x65, 0x6e, 0x73, 0x65, 0x2f, 0x4d, 0x61, 0x74,
  0x4d, 0x75, 0x6c, 0x00, 0xcc, 0xfc, 0xff, 0xff, 0xd6, 0xfd, 0xff, 0xff,
  0x04, 0x00, 0x00, 0x00, 0x08, 0x00, 0x00, 0x00, 0xff, 0xff, 0xff, 0xff,
  0x70, 0x00, 0x00, 0x00, 0x00, 0x00, 0x0e, 0x00, 0x18, 0x00, 0x08, 0x00,
  0x07, 0x00, 0x0c, 0x00, 0x10, 0x00, 0x14, 0x00, 0x0e, 0x00, 0x00, 0x00,
  0x00, 0x00, 0x00, 0x02, 0x10, 0x00, 0x00, 0x00, 0x06, 0x00, 0x00, 0x00,
  0x10, 0x00, 0x00, 0x00, 0x2c, 0x00, 0x00, 0x00, 0x01, 0x00, 0x00, 0x00,
  0x02, 0x00, 0x00, 0x00, 0x18, 0x00, 0x00, 0x00, 0x73, 0x65, 0x71, 0x75,
  0x65, 0x6e, 0x74, 0x69, 0x61, 0x6c, 0x2f, 0x66, 0x6c, 0x61, 0x74, 0x74,
  0x65, 0x6e, 0x2f, 0x43, 0x6f, 0x6e, 0x73, 0x74, 0x00, 0x00, 0x00, 0x00,
  0x34, 0xfd, 0xff, 0xff, 0x3e, 0xfe, 0xff, 0xff, 0x04, 0x00, 0x00, 0x00,
  0x10, 0x00, 0x00, 0x00, 0x78, 0x1d, 0x76, 0xc0, 0xbf, 0x9a, 0x33, 0xc0,
  0xe9, 0xe7, 0x52, 0x40, 0x0a, 0xed, 0xc3, 0x3e, 0x26, 0xfe, 0xff, 0xff,
  0x10, 0x00, 0x00, 0x00, 0x05, 0x00, 0x00, 0x00, 0x10, 0x00, 0x00, 0x00,
  0x44, 0x00, 0x00, 0x00, 0x01, 0x00, 0x00, 0x00, 0x04, 0x00, 0x00, 0x00,
  0x32, 0x00, 0x00, 0x00, 0x73, 0x65, 0x71, 0x75, 0x65, 0x6e, 0x74, 0x69,
  0x61, 0x6c, 0x2f, 0x64, 0x65, 0x6e, 0x73, 0x65, 0x5f, 0x31, 0x2f, 0x42,
  0x69, 0x61, 0x73, 0x41, 0x64, 0x64, 0x2f, 0x52, 0x65, 0x61, 0x64, 0x56,
  0x61, 0x72, 0x69, 0x61, 0x62, 0x6c, 0x65, 0x4f, 0x70, 0x2f, 0x72, 0x65,
  0x73, 0x6f, 0x75, 0x72, 0x63, 0x65, 0x00, 0x00, 0xa8, 0xfd, 0xff, 0xff,
  0xb2, 0xfe, 0xff, 0xff, 0x04, 0x00, 0x00, 0x00, 0x40, 0x00, 0x00, 0x00,
  0xe3, 0x61, 0xa7, 0x3e, 0x54, 0xc8, 0xb2, 0x40, 0x42, 0x68, 0x07, 0x40,
  0x91, 0xe7, 0x88, 0xbf, 0x0c, 0x41, 0xd3, 0xbe, 0x2a, 0x9f, 0x89, 0x3f,
  0x8e, 0xdf, 0xb4, 0xbf, 0xe7, 0xbd, 0xbe, 0x3f, 0x28, 0xa3, 0x3f, 0x3f,
  0xd1, 0xef, 0x86, 0x40, 0x00, 0x3a, 0xcd, 0xbf, 0x30, 0xf2, 0x21, 0xbf,
  0xc3, 0x42, 0x04, 0x3f, 0x1a, 0xe9, 0xd2, 0xbe, 0xfb, 0x13, 0x38, 0x3f,
  0x2d, 0x89, 0xb7, 0xbf, 0xca, 0xfe, 0xff, 0xff, 0x10, 0x00, 0x00, 0x00,
  0x04, 0x00, 0x00, 0x00, 0x10, 0x00, 0x00, 0x00, 0x44, 0x00, 0x00, 0x00,
  0x01, 0x00, 0x00, 0x00, 0x10, 0x00, 0x00, 0x00, 0x30, 0x00, 0x00, 0x00,
  0x73, 0x65, 0x71, 0x75, 0x65, 0x6e, 0x74, 0x69, 0x61, 0x6c, 0x2f, 0x64,
  0x65, 0x6e, 0x73, 0x65, 0x2f, 0x42, 0x69, 0x61, 0x73, 0x41, 0x64, 0x64,
  0x2f, 0x52, 0x65, 0x61, 0x64, 0x56, 0x61, 0x72, 0x69, 0x61, 0x62, 0x6c,
  0x65, 0x4f, 0x70, 0x2f, 0x72, 0x65, 0x73, 0x6f, 0x75, 0x72, 0x63, 0x65,
  0x00, 0x00, 0x00, 0x00, 0x4c, 0xfe, 0xff, 0xff, 0x56, 0xff, 0xff, 0xff,
  0x04, 0x00, 0x00, 0x00, 0x40, 0x00, 0x00, 0x00, 0xb4, 0x59, 0xe1, 0xbf,
  0x70, 0x74, 0xe4, 0xbf, 0x36, 0x16, 0x94, 0xbf, 0xe4, 0xf1, 0xcc, 0x3f,
  0x02, 0x58, 0xba, 0x3d, 0xdd, 0x29, 0xfe, 0xbe, 0xd4, 0x03, 0x37, 0xbe,
  0xf9, 0x89, 0xa1, 0x3e, 0xb6, 0xbe, 0xd5, 0xbf, 0x10, 0x47, 0x35, 0xc0,
  0x91, 0xf4, 0x0c, 0x40, 0x61, 0xfe, 0x3f, 0x3f, 0xb8, 0x16, 0x1e, 0xbe,
  0x54, 0xff, 0x76, 0x3f, 0xa8, 0xbb, 0xca, 0x40, 0x6c, 0xc5, 0xbb, 0x3e,
  0x6e, 0xff, 0xff, 0xff, 0x10, 0x00, 0x00, 0x00, 0x03, 0x00, 0x00, 0x00,
  0x10, 0x00, 0x00, 0x00, 0x48, 0x00, 0x00, 0x00, 0x01, 0x00, 0x00, 0x00,
  0x10, 0x00, 0x00, 0x00, 0x33, 0x00, 0x00, 0x00, 0x73, 0x65, 0x71, 0x75,
  0x65, 0x6e, 0x74, 0x69, 0x61, 0x6c, 0x2f, 0x63, 0x6f, 0x6e, 0x76, 0x32,
  0x64, 0x5f, 0x31, 0x2f, 0x42, 0x69, 0x61, 0x73, 0x41, 0x64, 0x64, 0x2f,
  0x52, 0x65, 0x61, 0x64, 0x56, 0x61, 0x72, 0x69, 0x61, 0x62, 0x6c, 0x65,
  0x4f, 0x70, 0x2f, 0x72, 0x65, 0x73, 0x6f, 0x75, 0x72, 0x63, 0x65, 0x00,
  0x04, 0x00, 0x06, 0x00, 0x04, 0x00, 0x00, 0x00, 0x00, 0x00, 0x06, 0x00,
  0x08, 0x00, 0x04, 0x00, 0x06, 0x00, 0x00, 0x00, 0x04, 0x00, 0x00, 0x00,
  0x20, 0x00, 0x00, 0x00, 0xbf, 0xad, 0x6d, 0xc0, 0xcb, 0xd2, 0xb7, 0xbd,
  0x64, 0x7a, 0xd4, 0x3f, 0xc2, 0xc0, 0x7c, 0xc0, 0xa3, 0x15, 0x57, 0xbf,
  0x39, 0xd0, 0x2d, 0xbf, 0xed, 0x41, 0x32, 0xc0, 0x15, 0x6c, 0x81, 0xbf,
  0x00, 0x00, 0x0e, 0x00, 0x14, 0x00, 0x04, 0x00, 0x00, 0x00, 0x08, 0x00,
  0x0c, 0x00, 0x10, 0x00, 0x0e, 0x00, 0x00, 0x00, 0x10, 0x00, 0x00, 0x00,
  0x02, 0x00, 0x00, 0x00, 0x10, 0x00, 0x00, 0x00, 0x44, 0x00, 0x00, 0x00,
  0x01, 0x00, 0x00, 0x00, 0x08, 0x00, 0x00, 0x00, 0x31, 0x00, 0x00, 0x00,
  0x73, 0x65, 0x71, 0x75, 0x65, 0x6e, 0x74, 0x69, 0x61, 0x6c, 0x2f, 0x63,
  0x6f, 0x6e, 0x76, 0x32, 0x64, 0x2f, 0x42, 0x69, 0x61, 0x73, 0x41, 0x64,
  0x64, 0x2f, 0x52, 0x65, 0x61, 0x64, 0x56, 0x61, 0x72, 0x69, 0x61, 0x62,
  0x6c, 0x65, 0x4f, 0x70, 0x2f, 0x72, 0x65, 0x73, 0x6f, 0x75, 0x72, 0x63,
  0x65, 0x00, 0x00, 0x00, 0x90, 0xff, 0xff, 0xff, 0x14, 0x00, 0x18, 0x00,
  0x04, 0x00, 0x00, 0x00, 0x08, 0x00, 0x0c, 0x00, 0x10, 0x00, 0x00, 0x00,
  0x00, 0x00, 0x14, 0x00, 0x14, 0x00, 0x00, 0x00, 0x14, 0x00, 0x00, 0x00,
  0x01, 0x00, 0x00, 0x00, 0x20, 0x00, 0x00, 0x00, 0x44, 0x00, 0x00, 0x00,
  0x2c, 0x00, 0x00, 0x00, 0x04, 0x00, 0x00, 0x00, 0x01, 0x00, 0x00, 0x00,
  0x40, 0x00, 0x00, 0x00, 0x03, 0x00, 0x00, 0x00, 0x01, 0x00, 0x00, 0x00,
  0x0c, 0x00, 0x00, 0x00, 0x63, 0x6f, 0x6e, 0x76, 0x32, 0x64, 0x5f, 0x69,
  0x6e, 0x70, 0x75, 0x74, 0x00, 0x00, 0x00, 0x00, 0x04, 0x00, 0x00, 0x00,
  0xff, 0xff, 0xff, 0xff, 0x40, 0x00, 0x00, 0x00, 0x03, 0x00, 0x00, 0x00,
  0x01, 0x00, 0x00, 0x00, 0xfc, 0xff, 0xff, 0xff, 0x04, 0x00, 0x04, 0x00,
  0x04, 0x00, 0x00, 0x00
};

unsigned int model_tflite_len = 13120;// Fill the int in `src/model.cc` here